{
  "version": "1.0",
  "truncation": null,
  "padding": null,
  "added_tokens": [
    {
      "id": 0,
      "content": "<unknown>",
      "single_word": false,
      "lstrip": false,
      "rstrip": false,
      "normalized": false,
      "special": true
    },
    {
      "id": 1,
      "content": "<padding>",
      "single_word": false,
      "lstrip": false,
      "rstrip": false,
      "normalized": false,
      "special": true
    },
    {
      "id": 2,
      "content": "<start>",
      "single_word": false,
      "lstrip": false,
      "rstrip": false,
      "normalized": false,
      "special": true
    },
    {
      "id": 3,
      "content": "<sep>",
      "single_word": false,
      "lstrip": false,
      "rstrip": false,
      "normalized": false,
      "special": true
    },
    {
      "id": 4,
      "content": "<mask>",
      "single_word": false,
      "lstrip": false,
      "rstrip": false,
      "normalized": false,
      "special": true
    }
  ],
  "normalizer": {
    "type": "Sequence",
    "normalizers": [
      {
        "type": "NFD"
      },
      {
        "type": "Lowercase"
      },
      {
        "type": "StripAccents"
      }
    ]
  },
  "pre_tokenizer": {
    "type": "Sequence",
    "pretokenizers": [
      {
        "type": "Whitespace"
      },
      {
        "type": "Punctuation",
        "behavior": "Isolated"
      }
    ]
  },
  "post_processor": {
    "type": "TemplateProcessing",
    "single": [
      {
        "SpecialToken": {
          "id": "<start>",
          "type_id": 0
        }
      },
      {
        "Sequence": {
          "id": "A",
          "type_id": 0
        }
      },
      {
        "SpecialToken": {
          "id": "<sep>",
          "type_id": 0
        }
      }
    ],
    "pair": [
      {
        "SpecialToken": {
          "id": "<start>",
          "type_id": 0
        }
      },
      {
        "Sequence": {
          "id": "A",
          "type_id": 0
        }
      },
      {
        "SpecialToken": {
          "id": "<sep>",
          "type_id": 0
        }
      },
      {
        "Sequence": {
          "id": "B",
          "type_id": 1
        }
      },
      {
        "SpecialToken": {
          "id": "<sep>",
          "type_id": 1
        }
      }
    ],
    "special_tokens": {
      "<sep>": {
        "id": "<sep>",
        "ids": [
          3
        ],
        "tokens": [
          "<sep>"
        ]
      },
      "<start>": {
        "id": "<start>",
        "ids": [
          2
        ],
        "tokens": [
          "<start>"
        ]
      }
    }
  },
  "decoder": {
    "type": "WordPiece",
    "prefix": "<ss>",
    "cleanup": true
  },
  "model": {
    "type": "WordPiece",
    "unk_token": "<unknown>",
    "continuing_subword_prefix": "<ss>",
    "max_input_chars_per_word": 100,
    "vocab": {
      "<unknown>": 0,
      "<padding>": 1,
      "<start>": 2,
      "<sep>": 3,
      "<mask>": 4,
      "!": 5,
      "\"": 6,
      "#": 7,
      "$": 8,
      "%": 9,
      "&": 10,
      "'": 11,
      "(": 12,
      ")": 13,
      "*": 14,
      "+": 15,
      ",": 16,
      "-": 17,
      ".": 18,
      "/": 19,
      "0": 20,
      "1": 21,
      "2": 22,
      "3": 23,
      "4": 24,
      "5": 25,
      "6": 26,
      "7": 27,
      "8": 28,
      "9": 29,
      ":": 30,
      ";": 31,
      "<": 32,
      "=": 33,
      ">": 34,
      "?": 35,
      "@": 36,
      "[": 37,
      "\\": 38,
      "]": 39,
      "^": 40,
      "_": 41,
      "`": 42,
      "a": 43,
      "b": 44,
      "c": 45,
      "d": 46,
      "e": 47,
      "f": 48,
      "g": 49,
      "h": 50,
      "i": 51,
      "j": 52,
      "k": 53,
      "l": 54,
      "m": 55,
      "n": 56,
      "o": 57,
      "p": 58,
      "q": 59,
      "r": 60,
      "s": 61,
      "t": 62,
      "u": 63,
      "v": 64,
      "w": 65,
      "x": 66,
      "y": 67,
      "z": 68,
      "|": 69,
      "}": 70,
      "~": 71,
      "": 72,
      "": 73,
      "¡": 74,
      "¢": 75,
      "£": 76,
      "¥": 77,
      "§": 78,
      "°": 79,
      "±": 80,
      "²": 81,
      "³": 82,
      "´": 83,
      "µ": 84,
      "·": 85,
      "º": 86,
      "½": 87,
      "¿": 88,
      "×": 89,
      "ß": 90,
      "æ": 91,
      "ð": 92,
      "ø": 93,
      "þ": 94,
      "đ": 95,
      "ħ": 96,
      "ı": 97,
      "ł": 98,
      "œ": 99,
      "ɐ": 100,
      "ɑ": 101,
      "ɒ": 102,
      "ɔ": 103,
      "ə": 104,
      "ɛ": 105,
      "ɜ": 106,
      "ɡ": 107,
      "ɢ": 108,
      "ɪ": 109,
      "ɫ": 110,
      "ɳ": 111,
      "ɽ": 112,
      "ɾ": 113,
      "ʁ": 114,
      "ʃ": 115,
      "ʊ": 116,
      "ʋ": 117,
      "ʒ": 118,
      "ʔ": 119,
      "ʕ": 120,
      "ʲ": 121,
      "ʻ": 122,
      "ʼ": 123,
      "ʾ": 124,
      "ʿ": 125,
      "ˈ": 126,
      "ˌ": 127,
      "ː": 128,
      "α": 129,
      "β": 130,
      "γ": 131,
      "δ": 132,
      "ε": 133,
      "η": 134,
      "θ": 135,
      "ι": 136,
      "κ": 137,
      "λ": 138,
      "μ": 139,
      "ν": 140,
      "ξ": 141,
      "ο": 142,
      "π": 143,
      "ρ": 144,
      "ς": 145,
      "σ": 146,
      "τ": 147,
      "υ": 148,
      "φ": 149,
      "χ": 150,
      "ψ": 151,
      "ω": 152,
      "а": 153,
      "б": 154,
      "в": 155,
      "г": 156,
      "д": 157,
      "е": 158,
      "ж": 159,
      "з": 160,
      "и": 161,
      "к": 162,
      "л": 163,
      "м": 164,
      "н": 165,
      "о": 166,
      "п": 167,
      "р": 168,
      "с": 169,
      "т": 170,
      "у": 171,
      "х": 172,
      "ц": 173,
      "ш": 174,
      "ъ": 175,
      "ы": 176,
      "ь": 177,
      "ю": 178,
      "я": 179,
      "є": 180,
      "א": 181,
      "ב": 182,
      "ג": 183,
      "ה": 184,
      "ו": 185,
      "ז": 186,
      "ח": 187,
      "י": 188,
      "ל": 189,
      "ם": 190,
      "מ": 191,
      "ן": 192,
      "נ": 193,
      "ס": 194,
      "ף": 195,
      "פ": 196,
      "צ": 197,
      "ר": 198,
      "ש": 199,
      "ת": 200,
      "ء": 201,
      "ا": 202,
      "ب": 203,
      "ة": 204,
      "ت": 205,
      "ث": 206,
      "ج": 207,
      "ح": 208,
      "خ": 209,
      "د": 210,
      "ذ": 211,
      "ر": 212,
      "س": 213,
      "ش": 214,
      "ص": 215,
      "ع": 216,
      "ف": 217,
      "ق": 218,
      "ك": 219,
      "ل": 220,
      "م": 221,
      "ن": 222,
      "ه": 223,
      "و": 224,
      "ي": 225,
      "ܐ": 226,
      "ܕ": 227,
      "ܗ": 228,
      "ܝ": 229,
      "ܠ": 230,
      "ܢ": 231,
      "ܬ": 232,
      "अ": 233,
      "ई": 234,
      "क": 235,
      "ग": 236,
      "ण": 237,
      "त": 238,
      "द": 239,
      "न": 240,
      "प": 241,
      "ब": 242,
      "म": 243,
      "य": 244,
      "र": 245,
      "ल": 246,
      "व": 247,
      "स": 248,
      "ह": 249,
      "আ": 250,
      "ল": 251,
      "হ": 252,
      "ਅ": 253,
      "ਲ": 254,
      "ਹ": 255,
      "അ": 256,
      "ള": 257,
      "ഹ": 258,
      "ก": 259,
      "ค": 260,
      "ง": 261,
      "ช": 262,
      "ซ": 263,
      "ญ": 264,
      "ฐ": 265,
      "ณ": 266,
      "ด": 267,
      "ต": 268,
      "น": 269,
      "บ": 270,
      "ป": 271,
      "พ": 272,
      "ภ": 273,
      "ม": 274,
      "ย": 275,
      "ร": 276,
      "ล": 277,
      "ว": 278,
      "ศ": 279,
      "ษ": 280,
      "ส": 281,
      "ห": 282,
      "อ": 283,
      "ฮ": 284,
      "ะ": 285,
      "า": 286,
      "เ": 287,
      "แ": 288,
      "ไ": 289,
      "ა": 290,
      "ბ": 291,
      "გ": 292,
      "დ": 293,
      "ე": 294,
      "ვ": 295,
      "ზ": 296,
      "თ": 297,
      "ი": 298,
      "კ": 299,
      "ლ": 300,
      "მ": 301,
      "ნ": 302,
      "ო": 303,
      "პ": 304,
      "ჟ": 305,
      "რ": 306,
      "ს": 307,
      "ტ": 308,
      "უ": 309,
      "ფ": 310,
      "ქ": 311,
      "ღ": 312,
      "ყ": 313,
      "შ": 314,
      "ჩ": 315,
      "ც": 316,
      "ძ": 317,
      "წ": 318,
      "ჭ": 319,
      "ხ": 320,
      "ჯ": 321,
      "ჰ": 322,
      "ჱ": 323,
      "ჲ": 324,
      "ჳ": 325,
      "ჴ": 326,
      "ჵ": 327,
      "ჶ": 328,
      "ჷ": 329,
      "ჸ": 330,
      "ჹ": 331,
      "ჺ": 332,
      "჻": 333,
      "ᄃ": 334,
      "ᄅ": 335,
      "ᄇ": 336,
      "ᄋ": 337,
      "ᄌ": 338,
      "ᅡ": 339,
      "ᅢ": 340,
      "ᅦ": 341,
      "ᅧ": 342,
      "ᅩ": 343,
      "ᅮ": 344,
      "ᅵ": 345,
      "ᆨ": 346,
      "ᆫ": 347,
      "ᆯ": 348,
      "ᆸ": 349,
      "ᆼ": 350,
      "ᵻ": 351,
      "​": 352,
      "‐": 353,
      "‑": 354,
      "–": 355,
      "—": 356,
      "―": 357,
      "‘": 358,
      "’": 359,
      "“": 360,
      "”": 361,
      "„": 362,
      "†": 363,
      "‡": 364,
      "•": 365,
      "…": 366,
      "′": 367,
      "″": 368,
      "⁄": 369,
      "₣": 370,
      "₤": 371,
      "€": 372,
      "₹": 373,
      "⅓": 374,
      "⅔": 375,
      "→": 376,
      "−": 377,
      "≡": 378,
      "≤": 379,
      "①": 380,
      "☉": 381,
      "☫": 382,
      "♀": 383,
      "♭": 384,
      "♯": 385,
      "⚳": 386,
      "ⴀ": 387,
      "ⴂ": 388,
      "ⴃ": 389,
      "ⴈ": 390,
      "ⴌ": 391,
      "ⴕ": 392,
      "ⴟ": 393,
      "〈": 394,
      "〉": 395,
      "〜": 396,
      "あ": 397,
      "い": 398,
      "う": 399,
      "お": 400,
      "か": 401,
      "き": 402,
      "く": 403,
      "け": 404,
      "こ": 405,
      "さ": 406,
      "し": 407,
      "す": 408,
      "せ": 409,
      "た": 410,
      "ち": 411,
      "っ": 412,
      "つ": 413,
      "と": 414,
      "な": 415,
      "に": 416,
      "の": 417,
      "は": 418,
      "ひ": 419,
      "ふ": 420,
      "ほ": 421,
      "ま": 422,
      "み": 423,
      "め": 424,
      "も": 425,
      "ゃ": 426,
      "ゆ": 427,
      "ょ": 428,
      "ら": 429,
      "り": 430,
      "る": 431,
      "れ": 432,
      "わ": 433,
      "を": 434,
      "ん": 435,
      "ァ": 436,
      "ア": 437,
      "ィ": 438,
      "イ": 439,
      "ゥ": 440,
      "ウ": 441,
      "ェ": 442,
      "エ": 443,
      "ォ": 444,
      "オ": 445,
      "カ": 446,
      "キ": 447,
      "ク": 448,
      "ケ": 449,
      "コ": 450,
      "サ": 451,
      "シ": 452,
      "ス": 453,
      "セ": 454,
      "タ": 455,
      "チ": 456,
      "ッ": 457,
      "ツ": 458,
      "テ": 459,
      "ト": 460,
      "ナ": 461,
      "ニ": 462,
      "ネ": 463,
      "ノ": 464,
      "ハ": 465,
      "フ": 466,
      "ヘ": 467,
      "マ": 468,
      "ミ": 469,
      "ム": 470,
      "モ": 471,
      "ャ": 472,
      "ュ": 473,
      "ョ": 474,
      "ラ": 475,
      "リ": 476,
      "ル": 477,
      "レ": 478,
      "ロ": 479,
      "ン": 480,
      "・": 481,
      "ー": 482,
      "一": 483,
      "七": 484,
      "下": 485,
      "世": 486,
      "丙": 487,
      "中": 488,
      "主": 489,
      "乃": 490,
      "之": 491,
      "乙": 492,
      "九": 493,
      "二": 494,
      "云": 495,
      "人": 496,
      "今": 497,
      "付": 498,
      "作": 499,
      "侗": 500,
      "依": 501,
      "信": 502,
      "傳": 503,
      "儚": 504,
      "充": 505,
      "光": 506,
      "全": 507,
      "兵": 508,
      "其": 509,
      "具": 510,
      "円": 511,
      "再": 512,
      "出": 513,
      "判": 514,
      "前": 515,
      "剛": 516,
      "劇": 517,
      "劉": 518,
      "動": 519,
      "化": 520,
      "北": 521,
      "华": 522,
      "厂": 523,
      "去": 524,
      "古": 525,
      "可": 526,
      "台": 527,
      "史": 528,
      "同": 529,
      "名": 530,
      "君": 531,
      "吳": 532,
      "周": 533,
      "命": 534,
      "和": 535,
      "咲": 536,
      "善": 537,
      "四": 538,
      "國": 539,
      "園": 540,
      "圣": 541,
      "在": 542,
      "坂": 543,
      "堤": 544,
      "場": 545,
      "塘": 546,
      "夕": 547,
      "大": 548,
      "天": 549,
      "夫": 550,
      "女": 551,
      "妙": 552,
      "姚": 553,
      "子": 554,
      "孟": 555,
      "守": 556,
      "安": 557,
      "宋": 558,
      "完": 559,
      "宗": 560,
      "宝": 561,
      "宫": 562,
      "寝": 563,
      "寺": 564,
      "小": 565,
      "少": 566,
      "尾": 567,
      "山": 568,
      "岳": 569,
      "川": 570,
      "州": 571,
      "巳": 572,
      "市": 573,
      "師": 574,
      "平": 575,
      "广": 576,
      "庆": 577,
      "府": 578,
      "座": 579,
      "廬": 580,
      "建": 581,
      "式": 582,
      "張": 583,
      "彌": 584,
      "彩": 585,
      "彼": 586,
      "後": 587,
      "御": 588,
      "德": 589,
      "思": 590,
      "愛": 591,
      "憑": 592,
      "憶": 593,
      "應": 594,
      "懷": 595,
      "战": 596,
      "戦": 597,
      "扈": 598,
      "技": 599,
      "拉": 600,
      "拳": 601,
      "挑": 602,
      "揺": 603,
      "攻": 604,
      "放": 605,
      "政": 606,
      "散": 607,
      "斯": 608,
      "方": 609,
      "日": 610,
      "旦": 611,
      "旭": 612,
      "昌": 613,
      "明": 614,
      "星": 615,
      "春": 616,
      "晋": 617,
      "景": 618,
      "曦": 619,
      "月": 620,
      "望": 621,
      "未": 622,
      "本": 623,
      "李": 624,
      "村": 625,
      "杜": 626,
      "束": 627,
      "来": 628,
      "林": 629,
      "桜": 630,
      "梶": 631,
      "棘": 632,
      "椎": 633,
      "楊": 634,
      "楚": 635,
      "榮": 636,
      "橘": 637,
      "機": 638,
      "正": 639,
      "殻": 640,
      "殿": 641,
      "母": 642,
      "水": 643,
      "汉": 644,
      "沂": 645,
      "沙": 646,
      "河": 647,
      "泗": 648,
      "波": 649,
      "泣": 650,
      "洪": 651,
      "淹": 652,
      "清": 653,
      "湯": 654,
      "漢": 655,
      "澄": 656,
      "澤": 657,
      "火": 658,
      "灯": 659,
      "灵": 660,
      "灼": 661,
      "焼": 662,
      "熱": 663,
      "物": 664,
      "狐": 665,
      "狸": 666,
      "玄": 667,
      "王": 668,
      "玩": 669,
      "珂": 670,
      "珙": 671,
      "球": 672,
      "理": 673,
      "琦": 674,
      "琪": 675,
      "瓊": 676,
      "生": 677,
      "田": 678,
      "畢": 679,
      "番": 680,
      "瘡": 681,
      "白": 682,
      "皮": 683,
      "真": 684,
      "砲": 685,
      "礮": 686,
      "祈": 687,
      "神": 688,
      "祠": 689,
      "秋": 690,
      "空": 691,
      "立": 692,
      "精": 693,
      "約": 694,
      "絵": 695,
      "織": 696,
      "義": 697,
      "翠": 698,
      "者": 699,
      "耕": 700,
      "肖": 701,
      "胡": 702,
      "膀": 703,
      "臂": 704,
      "興": 705,
      "良": 706,
      "花": 707,
      "芳": 708,
      "芽": 709,
      "若": 710,
      "英": 711,
      "藕": 712,
      "藥": 713,
      "蘄": 714,
      "蘇": 715,
      "行": 716,
      "裁": 717,
      "規": 718,
      "覺": 719,
      "观": 720,
      "解": 721,
      "記": 722,
      "誓": 723,
      "誡": 724,
      "誰": 725,
      "謎": 726,
      "许": 727,
      "谭": 728,
      "豪": 729,
      "豫": 730,
      "費": 731,
      "贵": 732,
      "赤": 733,
      "趙": 734,
      "足": 735,
      "跡": 736,
      "転": 737,
      "辛": 738,
      "逆": 739,
      "遇": 740,
      "運": 741,
      "過": 742,
      "遠": 743,
      "選": 744,
      "邦": 745,
      "邱": 746,
      "部": 747,
      "郭": 748,
      "都": 749,
      "酈": 750,
      "里": 751,
      "野": 752,
      "金": 753,
      "銃": 754,
      "鋼": 755,
      "錄": 756,
      "錡": 757,
      "鍵": 758,
      "鐵": 759,
      "钱": 760,
      "铁": 761,
      "關": 762,
      "防": 763,
      "阿": 764,
      "陈": 765,
      "陳": 766,
      "陽": 767,
      "隊": 768,
      "階": 769,
      "集": 770,
      "雪": 771,
      "雲": 772,
      "霖": 773,
      "霹": 774,
      "靂": 775,
      "韓": 776,
      "願": 777,
      "顯": 778,
      "颜": 779,
      "马": 780,
      "高": 781,
      "龍": 782,
      "ﷲ": 783,
      "ﻋ": 784,
      "﻿": 785,
      "／": 786,
      "３": 787,
      "～": 788,
      "�": 789,
      "<ss>e": 790,
      "<ss>l": 791,
      "<ss>i": 792,
      "<ss>g": 793,
      "<ss>o": 794,
      "<ss>u": 795,
      "<ss>s": 796,
      "<ss>n": 797,
      "<ss>d": 798,
      "<ss>p": 799,
      "<ss>v": 800,
      "<ss>h": 801,
      "<ss>a": 802,
      "<ss>m": 803,
      "<ss>k": 804,
      "<ss>r": 805,
      "<ss>y": 806,
      "<ss>b": 807,
      "<ss>x": 808,
      "<ss>t": 809,
      "<ss>z": 810,
      "<ss>c": 811,
      "<ss>7": 812,
      "<ss>2": 813,
      "<ss>1": 814,
      "<ss>w": 815,
      "<ss>6": 816,
      "<ss>4": 817,
      "<ss>f": 818,
      "<ss>3": 819,
      "<ss>5": 820,
      "<ss>0": 821,
      "<ss>j": 822,
      "<ss>უ": 823,
      "<ss>ს": 824,
      "<ss>ხ": 825,
      "<ss>ა": 826,
      "<ss>ł": 827,
      "<ss>8": 828,
      "<ss>9": 829,
      "<ss>л": 830,
      "<ss>а": 831,
      "<ss>全": 832,
      "<ss>q": 833,
      "<ss>ɫ": 834,
      "<ss>ɑ": 835,
      "<ss>რ": 836,
      "<ss>ი": 837,
      "<ss>ტ": 838,
      "<ss>ე": 839,
      "<ss>н": 840,
      "<ss>т": 841,
      "<ss>о": 842,
      "<ss>к": 843,
      "<ss>р": 844,
      "<ss>ˈ": 845,
      "<ss>ו": 846,
      "<ss>פ": 847,
      "<ss>נ": 848,
      "<ss>ה": 849,
      "<ss>ल": 850,
      "<ss>付": 851,
      "<ss>き": 852,
      "<ss>く": 853,
      "<ss>れ": 854,
      "<ss>ø": 855,
      "<ss>е": 856,
      "<ss>д": 857,
      "<ss>珙": 858,
      "<ss>ლ": 859,
      "<ss>მ": 860,
      "<ss>წ": 861,
      "<ss>ფ": 862,
      "<ss>ɛ": 863,
      "<ss>ə": 864,
      "<ss>ɒ": 865,
      "<ss>ي": 866,
      "<ss>د": 867,
      "<ss>ا": 868,
      "<ss>ر": 869,
      "<ss>ص": 870,
      "<ss>ن": 871,
      "<ss>巳": 872,
      "<ss>泣": 873,
      "<ss>蘄": 874,
      "<ss>錄": 875,
      "<ss>γ": 876,
      "<ss>হ": 877,
      "<ss>ნ": 878,
      "<ss>ჲ": 879,
      "<ss>依": 880,
      "<ss>子": 881,
      "<ss>は": 882,
      "<ss>り": 883,
      "<ss>ы": 884,
      "<ss>и": 885,
      "<ss>ه": 886,
      "<ss>გ": 887,
      "<ss>ვ": 888,
      "<ss>場": 889,
      "<ss>の": 890,
      "<ss>ウ": 891,
      "<ss>ァ": 892,
      "<ss>ル": 893,
      "<ss>キ": 894,
      "<ss>ュ": 895,
      "<ss>リ": 896,
      "<ss>ア": 897,
      "<ss>３": 898,
      "<ss>м": 899,
      "<ss>ʊ": 900,
      "<ss>τ": 901,
      "<ss>ι": 902,
      "<ss>β": 903,
      "<ss>淹": 904,
      "<ss>金": 905,
      "<ss>山": 906,
      "<ss>ण": 907,
      "<ss>ई": 908,
      "<ss>ह": 909,
      "<ss>广": 910,
      "<ss>空": 911,
      "<ss>æ": 912,
      "<ss>し": 913,
      "<ss>も": 914,
      "<ss>君": 915,
      "<ss>か": 916,
      "<ss>願": 917,
      "<ss>う": 918,
      "<ss>な": 919,
      "<ss>ら": 920,
      "<ss>狐": 921,
      "<ss>α": 922,
      "<ss>ν": 923,
      "<ss>χ": 924,
      "<ss>ε": 925,
      "<ss>ρ": 926,
      "<ss>η": 927,
      "<ss>ς": 928,
      "<ss>贵": 929,
      "<ss>庆": 930,
      "<ss>河": 931,
      "<ss>ː": 932,
      "<ss>đ": 933,
      "<ss>ɪ": 934,
      "<ss>ل": 935,
      "<ss>ك": 936,
      "<ss>わ": 937,
      "<ss>い": 938,
      "<ss>ף": 939,
      "<ss>ß": 940,
      "<ss>ξ": 941,
      "<ss>其": 942,
      "<ss>琪": 943,
      "<ss>ܕ": 944,
      "<ss>ܝ": 945,
      "<ss>ܢ": 946,
      "<ss>ܬ": 947,
      "<ss>誓": 948,
      "<ss>花": 949,
      "<ss>田": 950,
      "<ss>台": 951,
      "<ss>イ": 952,
      "<ss>ス": 953,
      "<ss>主": 954,
      "<ss>द": 955,
      "<ss>ɡ": 956,
      "<ss>ᵻ": 957,
      "<ss>愛": 958,
      "<ss>大": 959,
      "<ss>ッ": 960,
      "<ss>ク": 961,
      "<ss>マ": 962,
      "<ss>ン": 963,
      "<ss>妙": 964,
      "<ss>观": 965,
      "<ss>ォ": 966,
      "<ss>テ": 967,
      "<ss>ю": 968,
      "<ss>з": 969,
      "<ss>臂": 970,
      "<ss>膀": 971,
      "<ss>あ": 972,
      "<ss>ん": 973,
      "<ss>ニ": 974,
      "<ss>シ": 975,
      "<ss>დ": 976,
      "<ss>ʻ": 977,
      "<ss>ן": 978,
      "<ss>ο": 979,
      "<ss>國": 980,
      "<ss>春": 981,
      "<ss>秋": 982,
      "<ss>後": 983,
      "<ss>集": 984,
      "<ss>来": 985,
      "<ss>挑": 986,
      "<ss>戦": 987,
      "<ss>者": 988,
      "<ss>絵": 989,
      "<ss>س": 990,
      "<ss>ت": 991,
      "<ss>琦": 992,
      "<ss>ო": 993,
      "<ss>თ": 994,
      "<ss>у": 995,
      "<ss>с": 996,
      "<ss>я": 997,
      "<ss>云": 998,
      "<ss>清": 999,
      "<ss>و": 1000,
      "<ss>ح": 1001,
      "<ss>ɐ": 1002,
      "<ss>ל": 1003,
      "<ss>灵": 1004,
      "<ss>宫": 1005,
      "<ss>拉": 1006,
      "<ss>ˌ": 1007,
      "<ss>ナ": 1008,
      "<ss>ー": 1009,
      "<ss>ʁ": 1010,
      "<ss>न": 1011,
      "<ss>ც": 1012,
      "<ss>ゆ": 1013,
      "<ss>ɾ": 1014,
      "<ss>天": 1015,
      "<ss>府": 1016,
      "<ss>た": 1017,
      "<ss>足": 1018,
      "<ss>跡": 1019,
      "<ss>澤": 1020,
      "<ss>υ": 1021,
      "<ss>θ": 1022,
      "<ss>乃": 1023,
      "<ss>ᄇ": 1024,
      "<ss>ᅮ": 1025,
      "<ss>ᄃ": 1026,
      "<ss>ᅢ": 1027,
      "<ss>剛": 1028,
      "<ss>安": 1029,
      "<ss>เ": 1030,
      "<ss>ป": 1031,
      "<ss>ย": 1032,
      "<ss>ハ": 1033,
      "<ss>ト": 1034,
      "<ss>λ": 1035,
      "<ss>州": 1036,
      "<ss>ı": 1037,
      "<ss>フ": 1038,
      "<ss>タ": 1039,
      "<ss>ʔ": 1040,
      "<ss>憶": 1041,
      "<ss>棘": 1042,
      "<ss>同": 1043,
      "<ss>в": 1044,
      "<ss>ω": 1045,
      "<ss>μ": 1046,
      "<ss>化": 1047,
      "<ss>ɽ": 1048,
      "<ss>侗": 1049,
      "<ss>ב": 1050,
      "<ss>ר": 1051,
      "<ss>ם": 1052,
      "<ss>殻": 1053,
      "<ss>機": 1054,
      "<ss>動": 1055,
      "<ss>隊": 1056,
      "<ss>ع": 1057,
      "<ss>ة": 1058,
      "<ss>อ": 1059,
      "<ss>ก": 1060,
      "<ss>ว": 1061,
      "<ss>ร": 1062,
      "<ss>ษ": 1063,
      "<ss>ฐ": 1064,
      "<ss>錡": 1065,
      "<ss>ʿ": 1066,
      "<ss>っ": 1067,
      "<ss>ょ": 1068,
      "<ss>に": 1069,
      "<ss>雪": 1070,
      "<ss>ツ": 1071,
      "<ss>ネ": 1072,
      "<ss>י": 1073,
      "<ss>束": 1074,
      "<ss>お": 1075,
      "<ss>守": 1076,
      "<ss>ш": 1077,
      "<ss>豫": 1078,
      "<ss>ᅦ": 1079,
      "<ss>ᅩ": 1080,
      "<ss>ᆨ": 1081,
      "<ss>ᄅ": 1082,
      "<ss>ᅵ": 1083,
      "<ss>ᆸ": 1084,
      "<ss>ᅧ": 1085,
      "<ss>ᆼ": 1086,
      "<ss>ᄋ": 1087,
      "<ss>ᆫ": 1088,
      "<ss>ロ": 1089,
      "<ss>す": 1090,
      "<ss>め": 1091,
      "<ss>正": 1092,
      "<ss>芳": 1093,
      "<ss>翠": 1094,
      "<ss>英": 1095,
      "<ss>δ": 1096,
      "<ss>宗": 1097,
      "<ss>政": 1098,
      "<ss>祠": 1099,
      "<ss>พ": 1100,
      "<ss>ش": 1101,
      "<ss>خ": 1102,
      "<ss>月": 1103,
      "<ss>ィ": 1104,
      "<ss>ഹ": 1105,
      "<ss>技": 1106,
      "<ss>灼": 1107,
      "<ss>熱": 1108,
      "<ss>都": 1109,
      "<ss>市": 1110,
      "<ss>神": 1111,
      "<ss>村": 1112,
      "<ss>ノ": 1113,
      "<ss>ち": 1114,
      "<ss>ゃ": 1115,
      "<ss>ð": 1116,
      "<ss>स": 1117,
      "<ss>レ": 1118,
      "<ss>師": 1119,
      "<ss>旦": 1120,
      "<ss>ま": 1121,
      "<ss>靂": 1122,
      "<ss>火": 1123,
      "<ss>砲": 1124,
      "<ss>規": 1125,
      "<ss>र": 1126,
      "<ss>ס": 1127,
      "<ss>鋼": 1128,
      "<ss>ת": 1129,
      "<ss>א": 1130,
      "<ss>充": 1131,
      "<ss>カ": 1132,
      "<ss>ラ": 1133,
      "<ss>名": 1134,
      "<ss>ء": 1135,
      "<ss>ب": 1136,
      "<ss>沂": 1137,
      "<ss>中": 1138,
      "<ss>去": 1139,
      "<ss>思": 1140,
      "<ss>出": 1141,
      "<ss>ɳ": 1142,
      "<ss>ɔ": 1143,
      "<ss>つ": 1144,
      "<ss>ц": 1145,
      "<ss>ь": 1146,
      "<ss>チ": 1147,
      "<ss>懷": 1148,
      "<ss>ล": 1149,
      "<ss>ง": 1150,
      "<ss>ไ": 1151,
      "<ss>ช": 1152,
      "<ss>า": 1153,
      "<ss>ল": 1154,
      "<ss>ܠ": 1155,
      "<ss>ܗ": 1156,
      "<ss>ܐ": 1157,
      "<ss>沙": 1158,
      "<ss>ق": 1159,
      "<ss>ف": 1160,
      "<ss>球": 1161,
      "<ss>散": 1162,
      "<ss>關": 1163,
      "<ss>方": 1164,
      "<ss>ェ": 1165,
      "<ss>夫": 1166,
      "<ss>人": 1167,
      "<ss>部": 1168,
      "<ss>こ": 1169,
      "<ss>ש": 1170,
      "<ss>מ": 1171,
      "<ss>צ": 1172,
      "<ss>少": 1173,
      "<ss>女": 1174,
      "<ss>œ": 1175,
      "<ss>二": 1176,
      "<ss>明": 1177,
      "<ss>和": 1178,
      "<ss>川": 1179,
      "<ss>鍵": 1180,
      "<ss>運": 1181,
      "<ss>命": 1182,
      "<ss>乙": 1183,
      "<ss>ณ": 1184,
      "<ss>ม": 1185,
      "<ss>ต": 1186,
      "<ss>ゥ": 1187,
      "<ss>覺": 1188,
      "<ss>霖": 1189,
      "<ss>堤": 1190,
      "<ss>雲": 1191,
      "<ss>夕": 1192,
      "<ss>焼": 1193,
      "<ss>け": 1194,
      "<ss>邦": 1195,
      "<ss>昌": 1196,
      "<ss>π": 1197,
      "<ss>光": 1198,
      "<ss>世": 1199,
      "<ss>ʲ": 1200,
      "<ss>º": 1201,
      "<ss>व": 1202,
      "<ss>क": 1203,
      "<ss>丙": 1204,
      "<ss>を": 1205,
      "<ss>ひ": 1206,
      "<ss>と": 1207,
      "<ss>ग": 1208,
      "<ss>生": 1209,
      "<ss>ซ": 1210,
      "<ss>ქ": 1211,
      "<ss>ฮ": 1212,
      "<ss>さ": 1213,
      "<ss>祈": 1214,
      "<ss>セ": 1215,
      "<ss>オ": 1216,
      "<ss>х": 1217,
      "<ss>再": 1218,
      "<ss>遇": 1219,
      "<ss>颜": 1220,
      "<ss>望": 1221,
      "<ss>転": 1222,
      "<ss>裁": 1223,
      "<ss>判": 1224,
      "<ss>ъ": 1225,
      "<ss>ჳ": 1226,
      "<ss>番": 1227,
      "<ss>宝": 1228,
      "<ss>物": 1229,
      "<ss>作": 1230,
      "<ss>尾": 1231,
      "<ss>顯": 1232,
      "<ss>ɜ": 1233,
      "<ss>母": 1234,
      "<ss>殿": 1235,
      "<ss>波": 1236,
      "<ss>義": 1237,
      "<ss>信": 1238,
      "<ss>塘": 1239,
      "<ss>里": 1240,
      "<ss>み": 1241,
      "<ss>四": 1242,
      "<ss>式": 1243,
      "<ss>拳": 1244,
      "<ss>銃": 1245,
      "<ss>ョ": 1246,
      "<ss>σ": 1247,
      "<ss>サ": 1248,
      "<ss>ψ": 1249,
      "<ss>ਲ": 1250,
      "<ss>ਹ": 1251,
      "<ss>ค": 1252,
      "<ss>ʒ": 1253,
      "<ss>藥": 1254,
      "<ss>曦": 1255,
      "<ss>せ": 1256,
      "<ss>る": 1257,
      "<ss>劇": 1258,
      "<ss>م": 1259,
      "<ss>ʃ": 1260,
      "<ss>咲": 1261,
      "<ss>珂": 1262,
      "<ss>ث": 1263,
      "<ss>解": 1264,
      "<ss>放": 1265,
      "<ss>景": 1266,
      "<ss>エ": 1267,
      "<ss>ᅡ": 1268,
      "<ss>ᆯ": 1269,
      "<ss>κ": 1270,
      "<ss>円": 1271,
      "<ss>寺": 1272,
      "<ss>揺": 1273,
      "<ss>良": 1274,
      "<ss>防": 1275,
      "<ss>御": 1276,
      "<ss>战": 1277,
      "<ss>ャ": 1278,
      "<ss>モ": 1279,
      "<ss>憑": 1280,
      "<ss>兵": 1281,
      "<ss>建": 1282,
      "<ss>华": 1283,
      "<ss>瘡": 1284,
      "<ss>ള": 1285,
      "<ss>п": 1286,
      "<ss>г": 1287,
      "<ss>ะ": 1288,
      "<ss>น": 1289,
      "<ss>興": 1290,
      "<ss>選": 1291,
      "<ss>є": 1292,
      "<ss>ภ": 1293,
      "<ss>ด": 1294,
      "<ss>日": 1295,
      "<ss>玩": 1296,
      "<ss>具": 1297,
      "<ss>厂": 1298,
      "<ss>彌": 1299,
      "<ss>遠": 1300,
      "<ss>ذ": 1301,
      "<ss>ム": 1302,
      "<ss>星": 1303,
      "<ss>漢": 1304,
      "<ss>宋": 1305,
      "<ss>岳": 1306,
      "<ss>王": 1307,
      "<ss>傳": 1308,
      "<ss>園": 1309,
      "<ss>榮": 1310,
      "<ss>礮": 1311,
      "<ss>ჱ": 1312,
      "<ss>在": 1313,
      "<ss>本": 1314,
      "<ss>ミ": 1315,
      "<ss>彩": 1316,
      "<ss>狸": 1317,
      "<ss>精": 1318,
      "<ss>誡": 1319,
      "<ss>แ": 1320,
      "<ss>ж": 1321,
      "<ss>之": 1322,
      "<ss>平": 1323,
      "<ss>汉": 1324,
      "<ss>瓊": 1325,
      "th": 1326,
      "the": 1327,
      "<ss>er": 1328,
      "<ss>in": 1329,
      "<ss>ed": 1330,
      "<ss>on": 1331,
      "<ss>nd": 1332,
      "<ss>es": 1333,
      "<ss>at": 1334,
      "<ss>or": 1335,
      "<ss>en": 1336,
      "<ss>ar": 1337,
      "in": 1338,
      "of": 1339,
      "<ss>an": 1340,
      "<ss>al": 1341,
      "<ss>it": 1342,
      "<ss>ing": 1343,
      "and": 1344,
      "<ss>is": 1345,
      "<ss>as": 1346,
      "to": 1347,
      "<ss>ic": 1348,
      "<ss>ou": 1349,
      "<ss>ion": 1350,
      "<ss>re": 1351,
      "<ss>om": 1352,
      "<ss>el": 1353,
      "<ss>il": 1354,
      "<ss>ec": 1355,
      "<ss>ent": 1356,
      "<ss>th": 1357,
      "<ss>st": 1358,
      "<ss>am": 1359,
      "<ss>ur": 1360,
      "<ss>ad": 1361,
      "<ss>ac": 1362,
      "on": 1363,
      "<ss>le": 1364,
      "<ss>ro": 1365,
      "was": 1366,
      "st": 1367,
      "<ss>et": 1368,
      "for": 1369,
      "<ss>ly": 1370,
      "<ss>ol": 1371,
      "<ss>ir": 1372,
      "as": 1373,
      "wh": 1374,
      "<ss>iv": 1375,
      "<ss>ter": 1376,
      "<ss>id": 1377,
      "<ss>ig": 1378,
      "re": 1379,
      "<ss>ith": 1380,
      "<ss>ow": 1381,
      "<ss>ay": 1382,
      "be": 1383,
      "al": 1384,
      "<ss>im": 1385,
      "<ss>ch": 1386,
      "with": 1387,
      "<ss>ation": 1388,
      "that": 1389,
      "is": 1390,
      "it": 1391,
      "<ss>ut": 1392,
      "<ss>ers": 1393,
      "<ss>em": 1394,
      "<ss>ot": 1395,
      "con": 1396,
      "fr": 1397,
      "by": 1398,
      "an": 1399,
      "<ss>us": 1400,
      "at": 1401,
      "ch": 1402,
      "<ss>ul": 1403,
      "<ss>ce": 1404,
      "he": 1405,
      "<ss>ver": 1406,
      "<ss>os": 1407,
      "<ss>and": 1408,
      "<ss>est": 1409,
      "sh": 1410,
      "<ss>ag": 1411,
      "<ss>ain": 1412,
      "19": 1413,
      "<ss>um": 1414,
      "com": 1415,
      "<ss>av": 1416,
      "his": 1417,
      "<ss>ere": 1418,
      "<ss>od": 1419,
      "from": 1420,
      "<ss>ess": 1421,
      "pro": 1422,
      "su": 1423,
      "<ss>op": 1424,
      "se": 1425,
      "<ss>ct": 1426,
      "de": 1427,
      "<ss>ri": 1428,
      "<ss>ist": 1429,
      "<ss>ap": 1430,
      "20": 1431,
      "<ss>ies": 1432,
      "<ss>un": 1433,
      "<ss>ect": 1434,
      "ne": 1435,
      "<ss>if": 1436,
      "<ss>igh": 1437,
      "or": 1438,
      "<ss>ill": 1439,
      "were": 1440,
      "pl": 1441,
      "<ss>ab": 1442,
      "<ss>ak": 1443,
      "ar": 1444,
      "<ss>all": 1445,
      "<ss>ld": 1446,
      "<ss>ich": 1447,
      "<ss>ard": 1448,
      "<ss>ate": 1449,
      "<ss>ong": 1450,
      "<ss>ort": 1451,
      "<ss>oc": 1452,
      "ex": 1453,
      "<ss>art": 1454,
      "un": 1455,
      "<ss>ish": 1456,
      "<ss>ther": 1457,
      "<ss>ant": 1458,
      "<ss>pp": 1459,
      "le": 1460,
      "<ss>ber": 1461,
      "<ss>ud": 1462,
      "<ss>gh": 1463,
      "pr": 1464,
      "tr": 1465,
      "sp": 1466,
      "<ss>ity": 1467,
      "<ss>ated": 1468,
      "<ss>se": 1469,
      "<ss>ame": 1470,
      "are": 1471,
      "<ss>ive": 1472,
      "en": 1473,
      "<ss>ie": 1474,
      "<ss>ack": 1475,
      "<ss>ore": 1476,
      "had": 1477,
      "<ss>ear": 1478,
      "<ss>ough": 1479,
      "<ss>ov": 1480,
      "which": 1481,
      "<ss>ge": 1482,
      "<ss>ell": 1483,
      "<ss>ast": 1484,
      "<ss>pt": 1485,
      "not": 1486,
      "<ss>ian": 1487,
      "<ss>ound": 1488,
      "rec": 1489,
      "<ss>our": 1490,
      "<ss>ip": 1491,
      "<ss>ment": 1492,
      "<ss>ord": 1493,
      "<ss>ine": 1494,
      "<ss>ally": 1495,
      "af": 1496,
      "<ss>rit": 1497,
      "<ss>ia": 1498,
      "<ss>ost": 1499,
      "comp": 1500,
      "<ss>ight": 1501,
      "her": 1502,
      "<ss>oun": 1503,
      "<ss>ave": 1504,
      "<ss>ue": 1505,
      "<ss>ary": 1506,
      "cl": 1507,
      "fir": 1508,
      "<ss>cc": 1509,
      "<ss>ust": 1510,
      "this": 1511,
      "ad": 1512,
      "200": 1513,
      "<ss>og": 1514,
      "but": 1515,
      "<ss>ous": 1516,
      "wor": 1517,
      "<ss>te": 1518,
      "tw": 1519,
      "their": 1520,
      "<ss>ach": 1521,
      "inc": 1522,
      "first": 1523,
      "bo": 1524,
      "ab": 1525,
      "sc": 1526,
      "<ss>ions": 1527,
      "cont": 1528,
      "its": 1529,
      "<ss>so": 1530,
      "gr": 1531,
      "man": 1532,
      "<ss>ure": 1533,
      "<ss>ical": 1534,
      "<ss>ath": 1535,
      "<ss>ial": 1536,
      "<ss>qu": 1537,
      "after": 1538,
      "<ss>ould": 1539,
      "one": 1540,
      "<ss>ome": 1541,
      "all": 1542,
      "<ss>ra": 1543,
      "they": 1544,
      "am": 1545,
      "int": 1546,
      "per": 1547,
      "res": 1548,
      "also": 1549,
      "<ss>ub": 1550,
      "<ss>ok": 1551,
      "rel": 1552,
      "<ss>per": 1553,
      "<ss>ide": 1554,
      "<ss>out": 1555,
      "<ss>ater": 1556,
      "ro": 1557,
      "mar": 1558,
      "tim": 1559,
      "<ss>ass": 1560,
      "<ss>ign": 1561,
      "comm": 1562,
      "us": 1563,
      "<ss>ire": 1564,
      "new": 1565,
      "fe": 1566,
      "<ss>age": 1567,
      "two": 1568,
      "<ss>00": 1569,
      "<ss>oll": 1570,
      "<ss>ru": 1571,
      "have": 1572,
      "<ss>orm": 1573,
      "des": 1574,
      "<ss>own": 1575,
      "<ss>ence": 1576,
      "has": 1577,
      "ser": 1578,
      "<ss>ree": 1579,
      "app": 1580,
      "<ss>ond": 1581,
      "play": 1582,
      "ag": 1583,
      "dis": 1584,
      "bec": 1585,
      "part": 1586,
      "been": 1587,
      "who": 1588,
      "go": 1589,
      "<ss>ans": 1590,
      "18": 1591,
      "<ss>ry": 1592,
      "<ss>land": 1593,
      "car": 1594,
      "im": 1595,
      "<ss>uring": 1596,
      "year": 1597,
      "<ss>pl": 1598,
      "<ss>ile": 1599,
      "<ss>ted": 1600,
      "<ss>ely": 1601,
      "<ss>ory": 1602,
      "<ss>du": 1603,
      "<ss>ition": 1604,
      "she": 1605,
      "<ss>ance": 1606,
      "me": 1607,
      "<ss>ations": 1608,
      "ev": 1609,
      "<ss>ff": 1610,
      "<ss>iz": 1611,
      "<ss>ang": 1612,
      "<ss>ade": 1613,
      "br": 1614,
      "<ss>lud": 1615,
      "we": 1616,
      "<ss>wn": 1617,
      "off": 1618,
      "fin": 1619,
      "over": 1620,
      "201": 1621,
      "<ss>ib": 1622,
      "co": 1623,
      "<ss>ens": 1624,
      "other": 1625,
      "<ss>ult": 1626,
      "pre": 1627,
      "<ss>pr": 1628,
      "out": 1629,
      "<ss>ric": 1630,
      "<ss>ite": 1631,
      "<ss>act": 1632,
      "fl": 1633,
      "can": 1634,
      "inter": 1635,
      "up": 1636,
      "ind": 1637,
      "cent": 1638,
      "nor": 1639,
      "during": 1640,
      "dec": 1641,
      "<ss>urn": 1642,
      "when": 1643,
      "<ss>ke": 1644,
      "includ": 1645,
      "<ss>ount": 1646,
      "time": 1647,
      "ear": 1648,
      "<ss>ice": 1649,
      "<ss>ace": 1650,
      "<ss>nder": 1651,
      "<ss>ember": 1652,
      "song": 1653,
      "po": 1654,
      "<ss>ents": 1655,
      "<ss>ks": 1656,
      "<ss>one": 1657,
      "<ss>we": 1658,
      "att": 1659,
      "sec": 1660,
      "<ss>ail": 1661,
      "<ss>ced": 1662,
      "into": 1663,
      "<ss>ose": 1664,
      "bl": 1665,
      "more": 1666,
      "te": 1667,
      "<ss>ward": 1668,
      "form": 1669,
      "<ss>ied": 1670,
      "act": 1671,
      "<ss>amp": 1672,
      "sou": 1673,
      "would": 1674,
      "<ss>ason": 1675,
      "<ss>port": 1676,
      "par": 1677,
      "<ss>man": 1678,
      "char": 1679,
      "<ss>able": 1680,
      "<ss>ings": 1681,
      "<ss>ces": 1682,
      "<ss>ited": 1683,
      "him": 1684,
      "jo": 1685,
      "<ss>ase": 1686,
      "most": 1687,
      "<ss>rib": 1688,
      "<ss>ased": 1689,
      "mus": 1690,
      "bet": 1691,
      "<ss>ix": 1692,
      "no": 1693,
      "kn": 1694,
      "<ss>ild": 1695,
      "game": 1696,
      "<ss>ates": 1697,
      "acc": 1698,
      "high": 1699,
      "<ss>ious": 1700,
      "<ss>old": 1701,
      "some": 1702,
      "<ss>les": 1703,
      "<ss>als": 1704,
      "cons": 1705,
      "rem": 1706,
      "ass": 1707,
      "<ss>way": 1708,
      "while": 1709,
      "<ss>gr": 1710,
      "them": 1711,
      "<ss>ors": 1712,
      "war": 1713,
      "may": 1714,
      "<ss>iss": 1715,
      "<ss>ake": 1716,
      "thr": 1717,
      "<ss>ph": 1718,
      "reg": 1719,
      "fil": 1720,
      "<ss>ts": 1721,
      "only": 1722,
      "<ss>lish": 1723,
      "<ss>vel": 1724,
      "there": 1725,
      "<ss>form": 1726,
      "gen": 1727,
      "how": 1728,
      "<ss>fer": 1729,
      "record": 1730,
      "eng": 1731,
      "<ss>gan": 1732,
      "under": 1733,
      "pe": 1734,
      "<ss>aw": 1735,
      "<ss>aus": 1736,
      "<ss>ood": 1737,
      "three": 1738,
      "later": 1739,
      "<ss>ved": 1740,
      "min": 1741,
      "<ss>eld": 1742,
      "<ss>ick": 1743,
      "about": 1744,
      "north": 1745,
      "film": 1746,
      "el": 1747,
      "so": 1748,
      "em": 1749,
      "<ss>reat": 1750,
      "through": 1751,
      "<ss>ollow": 1752,
      "season": 1753,
      "work": 1754,
      "<ss>ction": 1755,
      "<ss>ween": 1756,
      "between": 1757,
      "199": 1758,
      "li": 1759,
      "again": 1760,
      "<ss>att": 1761,
      "bu": 1762,
      "mon": 1763,
      "follow": 1764,
      "ac": 1765,
      "qu": 1766,
      "<ss>ey": 1767,
      "than": 1768,
      "ma": 1769,
      "sy": 1770,
      "end": 1771,
      "produ": 1772,
      "<ss>ug": 1773,
      "writ": 1774,
      "<ss>ered": 1775,
      "<ss>ular": 1776,
      "<ss>ational": 1777,
      "<ss>ock": 1778,
      "day": 1779,
      "rev": 1780,
      "win": 1781,
      "<ss>ral": 1782,
      "<ss>ict": 1783,
      "<ss>ters": 1784,
      "num": 1785,
      "<ss>hn": 1786,
      "spec": 1787,
      "<ss>ons": 1788,
      "col": 1789,
      "<ss>ft": 1790,
      "pos": 1791,
      "sub": 1792,
      "rele": 1793,
      "lar": 1794,
      "<ss>iew": 1795,
      "ret": 1796,
      "south": 1797,
      "<ss>ision": 1798,
      "def": 1799,
      "second": 1800,
      "<ss>fore": 1801,
      "<ss>ames": 1802,
      "do": 1803,
      "<ss>hip": 1804,
      "mov": 1805,
      "<ss>eric": 1806,
      "<ss>olog": 1807,
      "bro": 1808,
      "alb": 1809,
      "gu": 1810,
      "<ss>orn": 1811,
      "sch": 1812,
      "four": 1813,
      "where": 1814,
      "ph": 1815,
      "pres": 1816,
      "pub": 1817,
      "made": 1818,
      "<ss>ury": 1819,
      "sa": 1820,
      "cap": 1821,
      "city": 1822,
      "<ss>end": 1823,
      "world": 1824,
      "americ": 1825,
      "dr": 1826,
      "<ss>ating": 1827,
      "such": 1828,
      "<ss>ery": 1829,
      "album": 1830,
      "air": 1831,
      "before": 1832,
      "sur": 1833,
      "<ss>lic": 1834,
      "<ss>ived": 1835,
      "<ss>ific": 1836,
      "str": 1837,
      "<ss>ual": 1838,
      "ep": 1839,
      "call": 1840,
      "used": 1841,
      "<ss>ss": 1842,
      "<ss>tern": 1843,
      "series": 1844,
      "<ss>ever": 1845,
      "<ss>ily": 1846,
      "sever": 1847,
      "000": 1848,
      "pol": 1849,
      "<ss>ics": 1850,
      "supp": 1851,
      "gener": 1852,
      "sing": 1853,
      "<ss>ane": 1854,
      "pop": 1855,
      "being": 1856,
      "years": 1857,
      "both": 1858,
      "many": 1859,
      "found": 1860,
      "sm": 1861,
      "these": 1862,
      "op": 1863,
      "loc": 1864,
      "<ss>ning": 1865,
      "set": 1866,
      "<ss>urch": 1867,
      "hist": 1868,
      "<ss>red": 1869,
      "10": 1870,
      "sim": 1871,
      "stud": 1872,
      "back": 1873,
      "<ss>ected": 1874,
      "trans": 1875,
      "<ss>io": 1876,
      "count": 1877,
      "however": 1878,
      "<ss>ife": 1879,
      "add": 1880,
      "<ss>ird": 1881,
      "<ss>int": 1882,
      "dire": 1883,
      "will": 1884,
      "div": 1885,
      "long": 1886,
      "well": 1887,
      "star": 1888,
      "rece": 1889,
      "<ss>ained": 1890,
      "12": 1891,
      "<ss>ten": 1892,
      "number": 1893,
      "<ss>ised": 1894,
      "<ss>air": 1895,
      "<ss>ale": 1896,
      "<ss>ities": 1897,
      "<ss>velop": 1898,
      "bel": 1899,
      "<ss>igin": 1900,
      "then": 1901,
      "ter": 1902,
      "<ss>ause": 1903,
      "cro": 1904,
      "<ss>ron": 1905,
      "<ss>led": 1906,
      "<ss>ode": 1907,
      "arm": 1908,
      "batt": 1909,
      "<ss>other": 1910,
      "<ss>ier": 1911,
      "art": 1912,
      "origin": 1913,
      "desc": 1914,
      "<ss>ines": 1915,
      "inv": 1916,
      "appear": 1917,
      "early": 1918,
      "music": 1919,
      "<ss>oy": 1920,
      "<ss>its": 1921,
      "<ss>ement": 1922,
      "mill": 1923,
      "<ss>ise": 1924,
      "state": 1925,
      "epis": 1926,
      "<ss>ince": 1927,
      "brit": 1928,
      "charac": 1929,
      "<ss>atch": 1930,
      "several": 1931,
      "<ss>ep": 1932,
      "<ss>ank": 1933,
      "<ss>ton": 1934,
      "perform": 1935,
      "main": 1936,
      "16": 1937,
      "including": 1938,
      "against": 1939,
      "inst": 1940,
      "<ss>iver": 1941,
      "<ss>ve": 1942,
      "<ss>ection": 1943,
      "develop": 1944,
      "ob": 1945,
      "known": 1946,
      "<ss>oup": 1947,
      "port": 1948,
      "<ss>ann": 1949,
      "became": 1950,
      "team": 1951,
      "inf": 1952,
      "<ss>son": 1953,
      "met": 1954,
      "sl": 1955,
      "cre": 1956,
      "<ss>ield": 1957,
      "nov": 1958,
      "crit": 1959,
      "<ss>ures": 1960,
      "direct": 1961,
      "oper": 1962,
      "<ss>iet": 1963,
      "198": 1964,
      "mil": 1965,
      "est": 1966,
      "<ss>ert": 1967,
      "show": 1968,
      "united": 1969,
      "conc": 1970,
      "<ss>ful": 1971,
      "<ss>rop": 1972,
      "<ss>ower": 1973,
      "<ss>are": 1974,
      "const": 1975,
      "<ss>uc": 1976,
      "<ss>ern": 1977,
      "<ss>though": 1978,
      "although": 1979,
      "15": 1980,
      "cr": 1981,
      "century": 1982,
      "john": 1983,
      "old": 1984,
      "11": 1985,
      "<ss>yl": 1986,
      "dist": 1987,
      "dep": 1988,
      "lead": 1989,
      "land": 1990,
      "<ss>ool": 1991,
      "17": 1992,
      "<ss>ins": 1993,
      "<ss>any": 1994,
      "<ss>els": 1995,
      "<ss>ork": 1996,
      "following": 1997,
      "bar": 1998,
      "near": 1999,
      "<ss>up": 2000,
      "<ss>0s": 2001,
      "sign": 2002,
      "<ss>vern": 2003,
      "<ss>ative": 2004,
      "<ss>til": 2005,
      "down": 2006,
      "though": 2007,
      "contin": 2008,
      "<ss>uch": 2009,
      "run": 2010,
      "<ss>sp": 2011,
      "<ss>ley": 2012,
      "<ss>elf": 2013,
      "194": 2014,
      "like": 2015,
      "<ss>ather": 2016,
      "comple": 2017,
      "<ss>ah": 2018,
      "<ss>aph": 2019,
      "church": 2020,
      "dif": 2021,
      "<ss>der": 2022,
      "var": 2023,
      "ste": 2024,
      "<ss>ject": 2025,
      "<ss>iam": 2026,
      "disc": 2027,
      "open": 2028,
      "<ss>az": 2029,
      "<ss>ually": 2030,
      "ed": 2031,
      "began": 2032,
      "196": 2033,
      "along": 2034,
      "lo": 2035,
      "govern": 2036,
      "<ss>ized": 2037,
      "fam": 2038,
      "197": 2039,
      "because": 2040,
      "<ss>emb": 2041,
      "<ss>ains": 2042,
      "prov": 2043,
      "<ss>row": 2044,
      "could": 2045,
      "describ": 2046,
      "did": 2047,
      "<ss>ession": 2048,
      "six": 2049,
      "red": 2050,
      "ever": 2051,
      "<ss>une": 2052,
      "called": 2053,
      "peop": 2054,
      "episode": 2055,
      "ann": 2056,
      "pers": 2057,
      "<ss>yp": 2058,
      "king": 2059,
      "<ss>ued": 2060,
      "<ss>au": 2061,
      "<ss>ope": 2062,
      "dam": 2063,
      "ship": 2064,
      "hel": 2065,
      "<ss>aking": 2066,
      "<ss>enn": 2067,
      "until": 2068,
      "said": 2069,
      "<ss>ined": 2070,
      "feat": 2071,
      "area": 2072,
      "<ss>ivers": 2073,
      "ger": 2074,
      "<ss>ments": 2075,
      "american": 2076,
      "states": 2077,
      "resp": 2078,
      "prev": 2079,
      "design": 2080,
      "adv": 2081,
      "west": 2082,
      "<ss>eer": 2083,
      "<ss>itt": 2084,
      "exp": 2085,
      "group": 2086,
      "people": 2087,
      "<ss>lished": 2088,
      "aust": 2089,
      "start": 2090,
      "<ss>ium": 2091,
      "<ss>ove": 2092,
      "<ss>gest": 2093,
      "<ss>rol": 2094,
      "<ss>ull": 2095,
      "you": 2096,
      "return": 2097,
      "maj": 2098,
      "<ss>ured": 2099,
      "<ss>ruct": 2100,
      "since": 2101,
      "chr": 2102,
      "head": 2103,
      "<ss>amed": 2104,
      "mod": 2105,
      "any": 2106,
      "british": 2107,
      "pass": 2108,
      "<ss>ccess": 2109,
      "<ss>ind": 2110,
      "each": 2111,
      "national": 2112,
      "<ss>eng": 2113,
      "<ss>ange": 2114,
      "same": 2115,
      "<ss>cept": 2116,
      "released": 2117,
      "offic": 2118,
      "<ss>ty": 2119,
      "<ss>ont": 2120,
      "<ss>ided": 2121,
      "<ss>oman": 2122,
      "own": 2123,
      "<ss>ists": 2124,
      "<ss>ially": 2125,
      "<ss>oot": 2126,
      "<ss>thern": 2127,
      "occ": 2128,
      "<ss>ism": 2129,
      "around": 2130,
      "book": 2131,
      "<ss>tend": 2132,
      "<ss>ele": 2133,
      "ju": 2134,
      "aug": 2135,
      "med": 2136,
      "wee": 2137,
      "km": 2138,
      "million": 2139,
      "life": 2140,
      "use": 2141,
      "major": 2142,
      "<ss>ible": 2143,
      "<ss>osed": 2144,
      "13": 2145,
      "<ss>ouse": 2146,
      "five": 2147,
      "id": 2148,
      "mag": 2149,
      "eff": 2150,
      "camp": 2151,
      "road": 2152,
      "august": 2153,
      "<ss>res": 2154,
      "best": 2155,
      "miss": 2156,
      "<ss>ently": 2157,
      "gre": 2158,
      "<ss>ys": 2159,
      "small": 2160,
      "support": 2161,
      "<ss>ash": 2162,
      "command": 2163,
      "serv": 2164,
      "town": 2165,
      "school": 2166,
      "<ss>stem": 2167,
      "<ss>ony": 2168,
      "<ss>oss": 2169,
      "imp": 2170,
      "<ss>ues": 2171,
      "<ss>ets": 2172,
      "<ss>uth": 2173,
      "company": 2174,
      "character": 2175,
      "bre": 2176,
      "rep": 2177,
      "final": 2178,
      "<ss>xt": 2179,
      "another": 2180,
      "<ss>anc": 2181,
      "195": 2182,
      "success": 2183,
      "award": 2184,
      "river": 2185,
      "<ss>ident": 2186,
      "sept": 2187,
      "public": 2188,
      "<ss>omin": 2189,
      "if": 2190,
      "prot": 2191,
      "eur": 2192,
      "just": 2193,
      "attack": 2194,
      "consid": 2195,
      "coll": 2196,
      "ra": 2197,
      "<ss>ales": 2198,
      "fur": 2199,
      "great": 2200,
      "system": 2201,
      "september": 2202,
      "mid": 2203,
      "storm": 2204,
      "conf": 2205,
      "class": 2206,
      "<ss>ina": 2207,
      "<ss>ution": 2208,
      "ge": 2209,
      "hum": 2210,
      "line": 2211,
      "report": 2212,
      "<ss>aining": 2213,
      "<ss>app": 2214,
      "tit": 2215,
      "ext": 2216,
      "large": 2217,
      "austral": 2218,
      "games": 2219,
      "what": 2220,
      "my": 2221,
      "cor": 2222,
      "arr": 2223,
      "arch": 2224,
      "gl": 2225,
      "<ss>ob": 2226,
      "<ss>ural": 2227,
      "av": 2228,
      "tri": 2229,
      "det": 2230,
      "193": 2231,
      "black": 2232,
      "child": 2233,
      "<ss>ms": 2234,
      "water": 2235,
      "short": 2236,
      "<ss>ked": 2237,
      "191": 2238,
      "rest": 2239,
      "<ss>ble": 2240,
      "due": 2241,
      "la": 2242,
      "<ss>ient": 2243,
      "<ss>ague": 2244,
      "<ss>und": 2245,
      "ii": 2246,
      "<ss>ute": 2247,
      "last": 2248,
      "<ss>ired": 2249,
      "<ss>aving": 2250,
      "now": 2251,
      "<ss>aced": 2252,
      "ent": 2253,
      "june": 2254,
      "east": 2255,
      "history": 2256,
      "vide": 2257,
      "<ss>ats": 2258,
      "14": 2259,
      "oct": 2260,
      "<ss>dom": 2261,
      "late": 2262,
      "<ss>ored": 2263,
      "<ss>ives": 2264,
      "even": 2265,
      "jan": 2266,
      "name": 2267,
      "way": 2268,
      "review": 2269,
      "vers": 2270,
      "<ss>ately": 2271,
      "government": 2272,
      "german": 2273,
      "<ss>ilt": 2274,
      "build": 2275,
      "<ss>ene": 2276,
      "turn": 2277,
      "<ss>cl": 2278,
      "partic": 2279,
      "home": 2280,
      "island": 2281,
      "dem": 2282,
      "reach": 2283,
      "<ss>over": 2284,
      "received": 2285,
      "ant": 2286,
      "<ss>ology": 2287,
      "christ": 2288,
      "<ss>ogr": 2289,
      "har": 2290,
      "ins": 2291,
      "univers": 2292,
      "accord": 2293,
      "vis": 2294,
      "gun": 2295,
      "<ss>ages": 2296,
      "described": 2297,
      "much": 2298,
      "hur": 2299,
      "<ss>ech": 2300,
      "<ss>ption": 2301,
      "cour": 2302,
      "ele": 2303,
      "within": 2304,
      "track": 2305,
      "club": 2306,
      "species": 2307,
      "incre": 2308,
      "hal": 2309,
      "<ss>ober": 2310,
      "march": 2311,
      "god": 2312,
      "death": 2313,
      "men": 2314,
      "del": 2315,
      "top": 2316,
      "<ss>uary": 2317,
      "ke": 2318,
      "intern": 2319,
      "general": 2320,
      "<ss>erv": 2321,
      "<ss>ling": 2322,
      "<ss>by": 2323,
      "family": 2324,
      "<ss>ility": 2325,
      "october": 2326,
      "<ss>ting": 2327,
      "<ss>aged": 2328,
      "played": 2329,
      "sk": 2330,
      "<ss>ead": 2331,
      "<ss>gin": 2332,
      "sw": 2333,
      "typ": 2334,
      "according": 2335,
      "<ss>ae": 2336,
      "league": 2337,
      "times": 2338,
      "took": 2339,
      "capt": 2340,
      "<ss>ropical": 2341,
      "<ss>aim": 2342,
      "<ss>ified": 2343,
      "third": 2344,
      "<ss>ody": 2345,
      "leg": 2346,
      "<ss>rote": 2347,
      "ref": 2348,
      "<ss>ants": 2349,
      "power": 2350,
      "<ss>ively": 2351,
      "25": 2352,
      "list": 2353,
      "single": 2354,
      "<ss>eal": 2355,
      "july": 2356,
      "soc": 2357,
      "wrote": 2358,
      "<ss>ograph": 2359,
      "won": 2360,
      "<ss>ball": 2361,
      "<ss>empt": 2362,
      "<ss>iving": 2363,
      "organ": 2364,
      "video": 2365,
      "apr": 2366,
      "<ss>ians": 2367,
      "control": 2368,
      "differ": 2369,
      "<ss>ren": 2370,
      "<ss>ides": 2371,
      "event": 2372,
      "<ss>ink": 2373,
      "stre": 2374,
      "white": 2375,
      "sol": 2376,
      "progr": 2377,
      "allow": 2378,
      "appro": 2379,
      "<ss>eder": 2380,
      "based": 2381,
      "dest": 2382,
      "<ss>ner": 2383,
      "conv": 2384,
      "poss": 2385,
      "april": 2386,
      "tem": 2387,
      "story": 2388,
      "<ss>iod": 2389,
      "included": 2390,
      "val": 2391,
      "common": 2392,
      "person": 2393,
      "bas": 2394,
      "<ss>ital": 2395,
      "<ss>ai": 2396,
      "left": 2397,
      "belie": 2398,
      "york": 2399,
      "estab": 2400,
      "january": 2401,
      "those": 2402,
      "division": 2403,
      "result": 2404,
      "named": 2405,
      "very": 2406,
      "<ss>ically": 2407,
      "<ss>akes": 2408,
      "expl": 2409,
      "addition": 2410,
      "30": 2411,
      "prom": 2412,
      "attempt": 2413,
      "england": 2414,
      "<ss>aur": 2415,
      "<ss>ances": 2416,
      "period": 2417,
      "foot": 2418,
      "<ss>ew": 2419,
      "auth": 2420,
      "house": 2421,
      "<ss>atter": 2422,
      "<ss>ll": 2423,
      "<ss>itions": 2424,
      "hand": 2425,
      "vill": 2426,
      "previous": 2427,
      "eas": 2428,
      "<ss>ven": 2429,
      "<ss>ops": 2430,
      "bus": 2431,
      "<ss>ention": 2432,
      "<ss>par": 2433,
      "<ss>itch": 2434,
      "<ss>ilar": 2435,
      "enter": 2436,
      "<ss>ature": 2437,
      "far": 2438,
      "original": 2439,
      "vict": 2440,
      "<ss>ps": 2441,
      "heav": 2442,
      "<ss>ought": 2443,
      "mo": 2444,
      "som": 2445,
      "<ss>ham": 2446,
      "<ss>ulation": 2447,
      "november": 2448,
      "<ss>que": 2449,
      "<ss>ark": 2450,
      "<ss>ik": 2451,
      "commun": 2452,
      "month": 2453,
      "cal": 2454,
      "place": 2455,
      "kill": 2456,
      "europe": 2457,
      "light": 2458,
      "<ss>med": 2459,
      "champ": 2460,
      "field": 2461,
      "tropical": 2462,
      "<ss>raft": 2463,
      "stand": 2464,
      "<ss>ards": 2465,
      "<ss>ished": 2466,
      "<ss>ience": 2467,
      "<ss>bo": 2468,
      "192": 2469,
      "december": 2470,
      "<ss>ench": 2471,
      "built": 2472,
      "similar": 2473,
      "opp": 2474,
      "sug": 2475,
      "sent": 2476,
      "real": 2477,
      "<ss>let": 2478,
      "<ss>mer": 2479,
      "among": 2480,
      "milit": 2481,
      "match": 2482,
      "songs": 2483,
      "repr": 2484,
      "hurric": 2485,
      "led": 2486,
      "make": 2487,
      "<ss>ime": 2488,
      "present": 2489,
      "<ss>ler": 2490,
      "further": 2491,
      "init": 2492,
      "pat": 2493,
      "<ss>ense": 2494,
      "mark": 2495,
      "cur": 2496,
      "player": 2497,
      "local": 2498,
      "<ss>ences": 2499,
      "100": 2500,
      "law": 2501,
      "<ss>iven": 2502,
      "wind": 2503,
      "requ": 2504,
      "still": 2505,
      "tour": 2506,
      "<ss>sc": 2507,
      "<ss>iation": 2508,
      "<ss>inc": 2509,
      "next": 2510,
      "squ": 2511,
      "<ss>sh": 2512,
      "<ss>br": 2513,
      "2009": 2514,
      "<ss>por": 2515,
      "view": 2516,
      "youn": 2517,
      "<ss>gy": 2518,
      "<ss>ness": 2519,
      "bill": 2520,
      "trad": 2521,
      "2008": 2522,
      "<ss>ger": 2523,
      "tot": 2524,
      "super": 2525,
      "2010": 2526,
      "<ss>ison": 2527,
      "<ss>uss": 2528,
      "<ss>ruction": 2529,
      "pri": 2530,
      "cle": 2531,
      "<ss>ars": 2532,
      "<ss>aster": 2533,
      "exper": 2534,
      "rock": 2535,
      "iss": 2536,
      "tele": 2537,
      "<ss>bs": 2538,
      "import": 2539,
      "brig": 2540,
      "repl": 2541,
      "role": 2542,
      "post": 2543,
      "histor": 2544,
      "came": 2545,
      "plan": 2546,
      "<ss>line": 2547,
      "fre": 2548,
      "low": 2549,
      "every": 2550,
      "right": 2551,
      "band": 2552,
      "say": 2553,
      "side": 2554,
      "<ss>min": 2555,
      "love": 2556,
      "career": 2557,
      "moved": 2558,
      "cast": 2559,
      "<ss>aff": 2560,
      "university": 2561,
      "<ss>ival": 2562,
      "without": 2563,
      "<ss>ott": 2564,
      "beh": 2565,
      "<ss>aken": 2566,
      "polit": 2567,
      "coun": 2568,
      "often": 2569,
      "mor": 2570,
      "<ss>ged": 2571,
      "recorded": 2572,
      "few": 2573,
      "effect": 2574,
      "rad": 2575,
      "<ss>ush": 2576,
      "hurricane": 2577,
      "<ss>ories": 2578,
      "contr": 2579,
      "chart": 2580,
      "military": 2581,
      "caus": 2582,
      "tre": 2583,
      "<ss>yle": 2584,
      "<ss>bert": 2585,
      "park": 2586,
      "<ss>ength": 2587,
      "suggest": 2588,
      "memb": 2589,
      "order": 2590,
      "considered": 2591,
      "battal": 2592,
      "less": 2593,
      "prof": 2594,
      "rou": 2595,
      "deb": 2596,
      "production": 2597,
      "army": 2598,
      "release": 2599,
      "<ss>ister": 2600,
      "<ss>ady": 2601,
      "see": 2602,
      "2007": 2603,
      "former": 2604,
      "assoc": 2605,
      "<ss>elt": 2606,
      "level": 2607,
      "<ss>ior": 2608,
      "cy": 2609,
      "sold": 2610,
      "<ss>lu": 2611,
      "english": 2612,
      "week": 2613,
      "french": 2614,
      "fire": 2615,
      "wal": 2616,
      "claim": 2617,
      "fun": 2618,
      "<ss>thing": 2619,
      "point": 2620,
      "take": 2621,
      "refer": 2622,
      "<ss>ross": 2623,
      "published": 2624,
      "repres": 2625,
      "<ss>uted": 2626,
      "ang": 2627,
      "project": 2628,
      "<ss>wards": 2629,
      "written": 2630,
      "<ss>ico": 2631,
      "half": 2632,
      "different": 2633,
      "feder": 2634,
      "spe": 2635,
      "continued": 2636,
      "<ss>wh": 2637,
      "roy": 2638,
      "surv": 2639,
      "<ss>ensive": 2640,
      "<ss>side": 2641,
      "<ss>thers": 2642,
      "<ss>ves": 2643,
      "days": 2644,
      "<ss>na": 2645,
      "ha": 2646,
      "<ss>ada": 2647,
      "frie": 2648,
      "held": 2649,
      "forces": 2650,
      "manag": 2651,
      "international": 2652,
      "author": 2653,
      "cult": 2654,
      "night": 2655,
      "obs": 2656,
      "21": 2657,
      "strong": 2658,
      "route": 2659,
      "<ss>ared": 2660,
      "never": 2661,
      "desp": 2662,
      "nav": 2663,
      "pet": 2664,
      "help": 2665,
      "prop": 2666,
      "force": 2667,
      "press": 2668,
      "good": 2669,
      "<ss>ission": 2670,
      "friend": 2671,
      "defe": 2672,
      "cross": 2673,
      "sound": 2674,
      "<ss>iter": 2675,
      "<ss>iment": 2676,
      "stat": 2677,
      "<ss>ices": 2678,
      "find": 2679,
      "jack": 2680,
      "gold": 2681,
      "<ss>erc": 2682,
      "<ss>idge": 2683,
      "county": 2684,
      "having": 2685,
      "chang": 2686,
      "compet": 2687,
      "<ss>estern": 2688,
      "<ss>enc": 2689,
      "23": 2690,
      "<ss>tended": 2691,
      "mount": 2692,
      "<ss>vision": 2693,
      "<ss>ret": 2694,
      "throughout": 2695,
      "<ss>itar": 2696,
      "champions": 2697,
      "members": 2698,
      "whe": 2699,
      "<ss>ots": 2700,
      "2011": 2701,
      "sum": 2702,
      "become": 2703,
      "<ss>arn": 2704,
      "2006": 2705,
      "<ss>raw": 2706,
      "popular": 2707,
      "children": 2708,
      "particular": 2709,
      "<ss>rodu": 2710,
      "comb": 2711,
      "grand": 2712,
      "<ss>augh": 2713,
      "version": 2714,
      "total": 2715,
      "development": 2716,
      "ir": 2717,
      "earl": 2718,
      "title": 2719,
      "<ss>bru": 2720,
      "<ss>ising": 2721,
      "lost": 2722,
      "roman": 2723,
      "position": 2724,
      "pal": 2725,
      "rich": 2726,
      "<ss>amb": 2727,
      "<ss>ize": 2728,
      "country": 2729,
      "24": 2730,
      "<ss>ple": 2731,
      "<ss>ford": 2732,
      "highway": 2733,
      "26": 2734,
      "cover": 2735,
      "don": 2736,
      "litt": 2737,
      "pur": 2738,
      "program": 2739,
      "despite": 2740,
      "22": 2741,
      "fem": 2742,
      "live": 2743,
      "pa": 2744,
      "<ss>roy": 2745,
      "battle": 2746,
      "eight": 2747,
      "fle": 2748,
      "<ss>ipp": 2749,
      "fort": 2750,
      "southern": 2751,
      "little": 2752,
      "sit": 2753,
      "<ss>aces": 2754,
      "want": 2755,
      "febru": 2756,
      "critic": 2757,
      "february": 2758,
      "<ss>press": 2759,
      "central": 2760,
      "represent": 2761,
      "reported": 2762,
      "activ": 2763,
      "gave": 2764,
      "<ss>ring": 2765,
      "produced": 2766,
      "<ss>ylan": 2767,
      "geor": 2768,
      "ham": 2769,
      "dylan": 2770,
      "human": 2771,
      "<ss>day": 2772,
      "free": 2773,
      "mich": 2774,
      "site": 2775,
      "influ": 2776,
      "ord": 2777,
      "<ss>ailed": 2778,
      "cath": 2779,
      "<ss>ara": 2780,
      "television": 2781,
      "once": 2782,
      "2012": 2783,
      "writing": 2784,
      "given": 2785,
      "<ss>ened": 2786,
      "<ss>ests": 2787,
      "<ss>ours": 2788,
      "<ss>iety": 2789,
      "lab": 2790,
      "<ss>ried": 2791,
      "<ss>apan": 2792,
      "modern": 2793,
      "28": 2794,
      "coast": 2795,
      "president": 2796,
      "service": 2797,
      "northern": 2798,
      "hor": 2799,
      "<ss>ama": 2800,
      "ground": 2801,
      "young": 2802,
      "age": 2803,
      "sun": 2804,
      "afric": 2805,
      "equ": 2806,
      "<ss>yn": 2807,
      "arg": 2808,
      "signific": 2809,
      "japan": 2810,
      "mass": 2811,
      "vi": 2812,
      "elect": 2813,
      "include": 2814,
      "region": 2815,
      "invol": 2816,
      "<ss>echn": 2817,
      "hero": 2818,
      "western": 2819,
      "<ss>omen": 2820,
      "<ss>ably": 2821,
      "lim": 2822,
      "<ss>xim": 2823,
      "conn": 2824,
      "ball": 2825,
      "fact": 2826,
      "ill": 2827,
      "royal": 2828,
      "burn": 2829,
      "mi": 2830,
      "ve": 2831,
      "battalion": 2832,
      "seven": 2833,
      "making": 2834,
      "should": 2835,
      "away": 2836,
      "body": 2837,
      "<ss>con": 2838,
      "<ss>atic": 2839,
      "too": 2840,
      "eastern": 2841,
      "dou": 2842,
      "dav": 2843,
      "wood": 2844,
      "struct": 2845,
      "<ss>ches": 2846,
      "trav": 2847,
      "aff": 2848,
      "<ss>ploy": 2849,
      "occur": 2850,
      "tor": 2851,
      "techn": 2852,
      "2013": 2853,
      "<ss>ones": 2854,
      "seen": 2855,
      "exc": 2856,
      "look": 2857,
      "<ss>ades": 2858,
      "fif": 2859,
      "<ss>ress": 2860,
      "stated": 2861,
      "<ss>play": 2862,
      "ft": 2863,
      "ten": 2864,
      "dev": 2865,
      "across": 2866,
      "returned": 2867,
      "<ss>ax": 2868,
      "<ss>sequ": 2869,
      "instead": 2870,
      "<ss>ese": 2871,
      "prim": 2872,
      "ships": 2873,
      "tro": 2874,
      "<ss>ator": 2875,
      "guitar": 2876,
      "destroy": 2877,
      "established": 2878,
      "bur": 2879,
      "<ss>ological": 2880,
      "using": 2881,
      "cas": 2882,
      "<ss>fic": 2883,
      "<ss>ape": 2884,
      "50": 2885,
      "son": 2886,
      "<ss>inted": 2887,
      "<ss>otion": 2888,
      "190": 2889,
      "population": 2890,
      "construction": 2891,
      "full": 2892,
      "<ss>be": 2893,
      "america": 2894,
      "noted": 2895,
      "<ss>iction": 2896,
      "announ": 2897,
      "ire": 2898,
      "championship": 2899,
      "27": 2900,
      "<ss>ki": 2901,
      "<ss>ying": 2902,
      "<ss>ither": 2903,
      "broad": 2904,
      "introdu": 2905,
      "reached": 2906,
      "net": 2907,
      "<ss>ground": 2908,
      "developed": 2909,
      "building": 2910,
      "football": 2911,
      "civ": 2912,
      "mix": 2913,
      "<ss>iec": 2914,
      "<ss>aint": 2915,
      "thought": 2916,
      "players": 2917,
      "ireland": 2918,
      "<ss>ument": 2919,
      "brigade": 2920,
      "mean": 2921,
      "bi": 2922,
      "various": 2923,
      "lond": 2924,
      "works": 2925,
      "significant": 2926,
      "vir": 2927,
      "engine": 2928,
      "important": 2929,
      "read": 2930,
      "performance": 2931,
      "<ss>ef": 2932,
      "<ss>self": 2933,
      "<ss>rew": 2934,
      "william": 2935,
      "miles": 2936,
      "london": 2937,
      "father": 2938,
      "indust": 2939,
      "himself": 2940,
      "kingdom": 2941,
      "<ss>used": 2942,
      "cert": 2943,
      "<ss>ket": 2944,
      "style": 2945,
      "need": 2946,
      "<ss>ne": 2947,
      "<ss>iness": 2948,
      "pra": 2949,
      "bird": 2950,
      "fig": 2951,
      "<ss>work": 2952,
      "<ss>co": 2953,
      "front": 2954,
      "performed": 2955,
      "felt": 2956,
      "hy": 2957,
      "<ss>ald": 2958,
      "<ss>omb": 2959,
      "<ss>idence": 2960,
      "australia": 2961,
      "fall": 2962,
      "od": 2963,
      "tur": 2964,
      "cir": 2965,
      "brown": 2966,
      "official": 2967,
      "put": 2968,
      "areas": 2969,
      "feet": 2970,
      "earth": 2971,
      "mer": 2972,
      "ver": 2973,
      "went": 2974,
      "suff": 2975,
      "events": 2976,
      "fac": 2977,
      "ol": 2978,
      "<ss>get": 2979,
      "<ss>vers": 2980,
      "<ss>most": 2981,
      "<ss>itive": 2982,
      "decl": 2983,
      "does": 2984,
      "phil": 2985,
      "civil": 2986,
      "cup": 2987,
      "rh": 2988,
      "bri": 2989,
      "mm": 2990,
      "vol": 2991,
      "begin": 2992,
      "bow": 2993,
      "<ss>mp": 2994,
      "relations": 2995,
      "poem": 2996,
      "died": 2997,
      "<ss>osaur": 2998,
      "relig": 2999,
      "sett": 3000,
      "<ss>ucle": 3001,
      "court": 3002,
      "cer": 3003,
      "let": 3004,
      "range": 3005,
      "<ss>ief": 3006,
      "hom": 3007,
      "vo": 3008,
      "<ss>oph": 3009,
      "successful": 3010,
      "lang": 3011,
      "others": 3012,
      "<ss>ges": 3013,
      "<ss>ino": 3014,
      "<ss>ogn": 3015,
      "wall": 3016,
      "<ss>aign": 3017,
      "<ss>ster": 3018,
      "<ss>antic": 3019,
      "originally": 3020,
      "sn": 3021,
      "<ss>unch": 3022,
      "<ss>reek": 3023,
      "<ss>pression": 3024,
      "campaign": 3025,
      "gal": 3026,
      "get": 3027,
      "<ss>ael": 3028,
      "upon": 3029,
      "<ss>me": 3030,
      "<ss>field": 3031,
      "<ss>ana": 3032,
      "<ss>ements": 3033,
      "base": 3034,
      "<ss>craft": 3035,
      "hot": 3036,
      "<ss>ering": 3037,
      "<ss>ization": 3038,
      "novel": 3039,
      "started": 3040,
      "ap": 3041,
      "james": 3042,
      "<ss>ung": 3043,
      "formed": 3044,
      "know": 3045,
      "<ss>gether": 3046,
      "characters": 3047,
      "political": 3048,
      "sal": 3049,
      "<ss>lo": 3050,
      "<ss>ript": 3051,
      "women": 3052,
      "<ss>ints": 3053,
      "<ss>iting": 3054,
      "circ": 3055,
      "<ss>ration": 3056,
      "<ss>ination": 3057,
      "proc": 3058,
      "pred": 3059,
      "special": 3060,
      "stars": 3061,
      "discover": 3062,
      "born": 3063,
      "scient": 3064,
      "ly": 3065,
      "sel": 3066,
      "tradition": 3067,
      "caused": 3068,
      "hold": 3069,
      "prote": 3070,
      "located": 3071,
      "eventually": 3072,
      "word": 3073,
      "street": 3074,
      "hill": 3075,
      "<ss>iers": 3076,
      "<ss>aves": 3077,
      "director": 3078,
      "resear": 3079,
      "<ss>af": 3080,
      "<ss>alth": 3081,
      "center": 3082,
      "created": 3083,
      "nar": 3084,
      "pen": 3085,
      "able": 3086,
      "189": 3087,
      "critics": 3088,
      "research": 3089,
      "<ss>ney": 3090,
      "entire": 3091,
      "ber": 3092,
      "<ss>ox": 3093,
      "<ss>fall": 3094,
      "enc": 3095,
      "2004": 3096,
      "atl": 3097,
      "<ss>isted": 3098,
      "2005": 3099,
      "produc": 3100,
      "aud": 3101,
      "<ss>ament": 3102,
      "<ss>epend": 3103,
      "wr": 3104,
      "magaz": 3105,
      "fight": 3106,
      "tom": 3107,
      "anim": 3108,
      "<ss>ested": 3109,
      "independ": 3110,
      "<ss>ality": 3111,
      "<ss>acy": 3112,
      "cop": 3113,
      "fav": 3114,
      "mc": 3115,
      "nucle": 3116,
      "colon": 3117,
      "<ss>arch": 3118,
      "together": 3119,
      "bir": 3120,
      "grow": 3121,
      "<ss>oming": 3122,
      "meet": 3123,
      "bay": 3124,
      "inn": 3125,
      "<ss>asing": 3126,
      "stri": 3127,
      "cond": 3128,
      "ide": 3129,
      "heavy": 3130,
      "san": 3131,
      "colle": 3132,
      "guns": 3133,
      "hon": 3134,
      "chap": 3135,
      "<ss>ries": 3136,
      "<ss>ample": 3137,
      "<ss>ille": 3138,
      "sex": 3139,
      "diffic": 3140,
      "difficult": 3141,
      "mother": 3142,
      "<ss>itted": 3143,
      "<ss>ects": 3144,
      "remained": 3145,
      "<ss>enth": 3146,
      "depart": 3147,
      "<ss>ship": 3148,
      "agre": 3149,
      "goal": 3150,
      "completed": 3151,
      "31": 3152,
      "nat": 3153,
      "scored": 3154,
      "non": 3155,
      "voc": 3156,
      "<ss>orts": 3157,
      "loss": 3158,
      "<ss>iated": 3159,
      "<ss>ivid": 3160,
      "australian": 3161,
      "announced": 3162,
      "<ss>king": 3163,
      "fourth": 3164,
      "ho": 3165,
      "mad": 3166,
      "mem": 3167,
      "sil": 3168,
      "<ss>li": 3169,
      "almost": 3170,
      "den": 3171,
      "<ss>ota": 3172,
      "comment": 3173,
      "peak": 3174,
      "damage": 3175,
      "behind": 3176,
      "jour": 3177,
      "<ss>ee": 3178,
      "<ss>anch": 3179,
      "reb": 3180,
      "least": 3181,
      "cell": 3182,
      "<ss>enced": 3183,
      "<ss>aly": 3184,
      "sea": 3185,
      "party": 3186,
      "rail": 3187,
      "<ss>omp": 3188,
      "<ss>elling": 3189,
      "added": 3190,
      "29": 3191,
      "hol": 3192,
      "<ss>ids": 3193,
      "flor": 3194,
      "territ": 3195,
      "du": 3196,
      "ru": 3197,
      "<ss>ray": 3198,
      "<ss>ream": 3199,
      "process": 3200,
      "aver": 3201,
      "key": 3202,
      "<ss>less": 3203,
      "condom": 3204,
      "followed": 3205,
      "months": 3206,
      "killed": 3207,
      "mach": 3208,
      "pitch": 3209,
      "wife": 3210,
      "insp": 3211,
      "appeared": 3212,
      "quar": 3213,
      "ident": 3214,
      "squad": 3215,
      "relationship": 3216,
      "<ss>mar": 3217,
      "inform": 3218,
      "<ss>aper": 3219,
      "playing": 3220,
      "individ": 3221,
      "hall": 3222,
      "round": 3223,
      "<ss>ique": 3224,
      "<ss>cil": 3225,
      "fa": 3226,
      "sour": 3227,
      "awards": 3228,
      "david": 3229,
      "ach": 3230,
      "mac": 3231,
      "sat": 3232,
      "<ss>omm": 3233,
      "station": 3234,
      "recogn": 3235,
      "curr": 3236,
      "jew": 3237,
      "kh": 3238,
      "features": 3239,
      "trib": 3240,
      "40": 3241,
      "hard": 3242,
      "<ss>den": 3243,
      "<ss>ky": 3244,
      "<ss>tim": 3245,
      "<ss>osp": 3246,
      "<ss>antry": 3247,
      "flight": 3248,
      "aircraft": 3249,
      "<ss>ius": 3250,
      "<ss>gn": 3251,
      "<ss>dle": 3252,
      "<ss>ston": 3253,
      "estim": 3254,
      "bra": 3255,
      "card": 3256,
      "2003": 3257,
      "appo": 3258,
      "185": 3259,
      "parl": 3260,
      "der": 3261,
      "treat": 3262,
      "taken": 3263,
      "ul": 3264,
      "<ss>emy": 3265,
      "<ss>ways": 3266,
      "fleet": 3267,
      "lack": 3268,
      "saw": 3269,
      "<ss>olution": 3270,
      "2015": 3271,
      "creat": 3272,
      "fund": 3273,
      "rank": 3274,
      "<ss>uit": 3275,
      "<ss>ming": 3276,
      "france": 3277,
      "<ss>ully": 3278,
      "interv": 3279,
      "action": 3280,
      "subsequ": 3281,
      "leading": 3282,
      "langu": 3283,
      "<ss>esh": 3284,
      "tal": 3285,
      "ur": 3286,
      "<ss>ani": 3287,
      "impro": 3288,
      "either": 3289,
      "mater": 3290,
      "<ss>etic": 3291,
      "proble": 3292,
      "separ": 3293,
      "served": 3294,
      "recording": 3295,
      "case": 3296,
      "hen": 3297,
      "towards": 3298,
      "<ss>istic": 3299,
      "parliam": 3300,
      "edu": 3301,
      "<ss>ata": 3302,
      "operations": 3303,
      "archae": 3304,
      "<ss>ography": 3305,
      "los": 3306,
      "decided": 3307,
      "transport": 3308,
      "<ss>utes": 3309,
      "clos": 3310,
      "rul": 3311,
      "wid": 3312,
      "<ss>ida": 3313,
      "elements": 3314,
      "ath": 3315,
      "cru": 3316,
      "draw": 3317,
      "host": 3318,
      "past": 3319,
      "close": 3320,
      "soon": 3321,
      "<ss>ency": 3322,
      "er": 3323,
      "<ss>to": 3324,
      "<ss>ze": 3325,
      "robert": 3326,
      "prem": 3327,
      "records": 3328,
      "di": 3329,
      "<ss>ecut": 3330,
      "<ss>cted": 3331,
      "commerc": 3332,
      "accept": 3333,
      "generally": 3334,
      "believed": 3335,
      "magazine": 3336,
      "<ss>igned": 3337,
      "flood": 3338,
      "move": 3339,
      "parliament": 3340,
      "cost": 3341,
      "rose": 3342,
      "tow": 3343,
      "compos": 3344,
      "council": 3345,
      "carey": 3346,
      "meas": 3347,
      "saf": 3348,
      "female": 3349,
      "<ss>my": 3350,
      "<ss>cent": 3351,
      "<ss>ica": 3352,
      "example": 3353,
      "mex": 3354,
      "gir": 3355,
      "que": 3356,
      "<ss>go": 3357,
      "commission": 3358,
      "regular": 3359,
      "infantry": 3360,
      "manager": 3361,
      "domin": 3362,
      "points": 3363,
      "business": 3364,
      "fly": 3365,
      "<ss>ped": 3366,
      "188": 3367,
      "weeks": 3368,
      "bal": 3369,
      "rather": 3370,
      "<ss>ned": 3371,
      "study": 3372,
      "stop": 3373,
      "european": 3374,
      "<ss>erm": 3375,
      "outside": 3376,
      "federer": 3377,
      "foc": 3378,
      "<ss>ators": 3379,
      "<ss>ential": 3380,
      "<ss>spec": 3381,
      "opened": 3382,
      "educ": 3383,
      "35": 3384,
      "cut": 3385,
      "<ss>lin": 3386,
      "beg": 3387,
      "<ss>odes": 3388,
      "adm": 3389,
      "brought": 3390,
      "finished": 3391,
      "regard": 3392,
      "directed": 3393,
      "approach": 3394,
      "viet": 3395,
      "<ss>oring": 3396,
      "wales": 3397,
      "<ss>uter": 3398,
      "<ss>ceed": 3399,
      "<ss>umb": 3400,
      "<ss>rict": 3401,
      "blue": 3402,
      "esc": 3403,
      "mal": 3404,
      "ven": 3405,
      "yard": 3406,
      "earlier": 3407,
      "<ss>nes": 3408,
      "bey": 3409,
      "featured": 3410,
      "achie": 3411,
      "mcc": 3412,
      "inh": 3413,
      "<ss>imes": 3414,
      "<ss>aps": 3415,
      "union": 3416,
      "secret": 3417,
      "teach": 3418,
      "sym": 3419,
      "redu": 3420,
      "respect": 3421,
      "launch": 3422,
      "victory": 3423,
      "mos": 3424,
      "member": 3425,
      "rain": 3426,
      "<ss>read": 3427,
      "stru": 3428,
      "<ss>oted": 3429,
      "sequ": 3430,
      "big": 3431,
      "<ss>wood": 3432,
      "express": 3433,
      "priv": 3434,
      "<ss>ordan": 3435,
      "<ss>board": 3436,
      "ey": 3437,
      "<ss>ole": 3438,
      "condu": 3439,
      "prob": 3440,
      "<ss>action": 3441,
      "anti": 3442,
      "radio": 3443,
      "<ss>tain": 3444,
      "stage": 3445,
      "wil": 3446,
      "<ss>asion": 3447,
      "muse": 3448,
      "provided": 3449,
      "association": 3450,
      "stay": 3451,
      "186": 3452,
      "indic": 3453,
      "working": 3454,
      "appearance": 3455,
      "opening": 3456,
      "village": 3457,
      "troops": 3458,
      "jordan": 3459,
      "tech": 3460,
      "<ss>eler": 3461,
      "deal": 3462,
      "syn": 3463,
      "wanted": 3464,
      "mot": 3465,
      "mult": 3466,
      "<ss>sel": 3467,
      "gar": 3468,
      "<ss>ores": 3469,
      "reason": 3470,
      "pract": 3471,
      "<ss>ellow": 3472,
      "employ": 3473,
      "winds": 3474,
      "particularly": 3475,
      "pot": 3476,
      "<ss>oid": 3477,
      "neg": 3478,
      "atlantic": 3479,
      "girl": 3480,
      "cam": 3481,
      "jud": 3482,
      "norm": 3483,
      "sem": 3484,
      "<ss>ania": 3485,
      "depression": 3486,
      "2014": 3487,
      "minor": 3488,
      "crew": 3489,
      "initially": 3490,
      "rap": 3491,
      "race": 3492,
      "<ss>ouri": 3493,
      "evidence": 3494,
      "instit": 3495,
      "middle": 3496,
      "christian": 3497,
      "social": 3498,
      "<ss>medi": 3499,
      "clear": 3500,
      "observ": 3501,
      "summer": 3502,
      "museum": 3503,
      "mur": 3504,
      "mary": 3505,
      "come": 3506,
      "office": 3507,
      "largest": 3508,
      "500": 3509,
      "kil": 3510,
      "nec": 3511,
      "pan": 3512,
      "george": 3513,
      "sus": 3514,
      "<ss>erous": 3515,
      "anc": 3516,
      "19th": 3517,
      "exist": 3518,
      "invest": 3519,
      "possible": 3520,
      "length": 3521,
      "<ss>west": 3522,
      "<ss>atin": 3523,
      "<ss>ago": 3524,
      "above": 3525,
      "room": 3526,
      "type": 3527,
      "commercial": 3528,
      "ban": 3529,
      "sam": 3530,
      "<ss>thod": 3531,
      "<ss>eter": 3532,
      "yards": 3533,
      "<ss>oth": 3534,
      "cho": 3535,
      "<ss>iff": 3536,
      "construct": 3537,
      "material": 3538,
      "hit": 3539,
      "must": 3540,
      "<ss>ounted": 3541,
      "feel": 3542,
      "florida": 3543,
      "wild": 3544,
      "<ss>val": 3545,
      "<ss>ker": 3546,
      "<ss>ita": 3547,
      "<ss>ington": 3548,
      "diss": 3549,
      "regiment": 3550,
      "acad": 3551,
      "allowed": 3552,
      "prior": 3553,
      "saying": 3554,
      "nine": 3555,
      "<ss>ude": 3556,
      "respons": 3557,
      "hours": 3558,
      "<ss>gg": 3559,
      "poor": 3560,
      "critical": 3561,
      "somet": 3562,
      "paul": 3563,
      "viol": 3564,
      "oliv": 3565,
      "quarter": 3566,
      "creek": 3567,
      "fut": 3568,
      "nomin": 3569,
      "operation": 3570,
      "repub": 3571,
      "econ": 3572,
      "<ss>east": 3573,
      "<ss>cast": 3574,
      "whom": 3575,
      "strength": 3576,
      "econom": 3577,
      "lower": 3578,
      "liter": 3579,
      "pain": 3580,
      "lik": 3581,
      "quick": 3582,
      "specific": 3583,
      "reception": 3584,
      "missouri": 3585,
      "horse": 3586,
      "food": 3587,
      "<ss>off": 3588,
      "<ss>ck": 3589,
      "<ss>for": 3590,
      "seem": 3591,
      "princ": 3592,
      "2001": 3593,
      "worked": 3594,
      "police": 3595,
      "society": 3596,
      "test": 3597,
      "<ss>gar": 3598,
      "<ss>oon": 3599,
      "<ss>ville": 3600,
      "<ss>aries": 3601,
      "designed": 3602,
      "community": 3603,
      "pac": 3604,
      "previously": 3605,
      "doc": 3606,
      "<ss>uel": 3607,
      "break": 3608,
      "<ss>ih": 3609,
      "<ss>bor": 3610,
      "<ss>onst": 3611,
      "forced": 3612,
      "goals": 3613,
      "era": 3614,
      "fish": 3615,
      "<ss>bar": 3616,
      "<ss>erson": 3617,
      "heart": 3618,
      "<ss>vert": 3619,
      "<ss>oney": 3620,
      "remains": 3621,
      "praised": 3622,
      "fiction": 3623,
      "watch": 3624,
      "phys": 3625,
      "capital": 3626,
      "contract": 3627,
      "republic": 3628,
      "mart": 3629,
      "threat": 3630,
      "<ss>ett": 3631,
      "shot": 3632,
      "scre": 3633,
      "prepar": 3634,
      "indian": 3635,
      "mont": 3636,
      "increased": 3637,
      "profession": 3638,
      "michael": 3639,
      "lin": 3640,
      "ny": 3641,
      "uk": 3642,
      "<ss>gu": 3643,
      "<ss>iding": 3644,
      "coach": 3645,
      "account": 3646,
      "avail": 3647,
      "<ss>rated": 3648,
      "<ss>itz": 3649,
      "unc": 3650,
      "187": 3651,
      "media": 3652,
      "interview": 3653,
      "aut": 3654,
      "hu": 3655,
      "hous": 3656,
      "hosp": 3657,
      "<ss>uation": 3658,
      "theat": 3659,
      "stone": 3660,
      "interest": 3661,
      "surf": 3662,
      "background": 3663,
      "<ss>gypt": 3664,
      "<ss>ving": 3665,
      "units": 3666,
      "<ss>ended": 3667,
      "studio": 3668,
      "commander": 3669,
      "egypt": 3670,
      "taking": 3671,
      "proper": 3672,
      "writer": 3673,
      "<ss>ronic": 3674,
      "object": 3675,
      "replaced": 3676,
      "face": 3677,
      "<ss>nal": 3678,
      "thom": 3679,
      "<ss>ula": 3680,
      "<ss>elled": 3681,
      "parts": 3682,
      "richard": 3683,
      "<ss>xas": 3684,
      "inj": 3685,
      "<ss>usion": 3686,
      "<ss>ributed": 3687,
      "navy": 3688,
      "industry": 3689,
      "dom": 3690,
      "ot": 3691,
      "<ss>ma": 3692,
      "<ss>erved": 3693,
      "<ss>ites": 3694,
      "<ss>lement": 3695,
      "<ss>abit": 3696,
      "assist": 3697,
      "subst": 3698,
      "discuss": 3699,
      "approxim": 3700,
      "section": 3701,
      "<ss>band": 3702,
      "<ss>ste": 3703,
      "dead": 3704,
      "<ss>ription": 3705,
      "commit": 3706,
      "<ss>anned": 3707,
      "cycl": 3708,
      "religious": 3709,
      "college": 3710,
      "bod": 3711,
      "<ss>head": 3712,
      "<ss>reg": 3713,
      "highest": 3714,
      "reviews": 3715,
      "henry": 3716,
      "happ": 3717,
      "<ss>olic": 3718,
      "<ss>eston": 3719,
      "canada": 3720,
      "claimed": 3721,
      "beginning": 3722,
      "estimated": 3723,
      "mph": 3724,
      "pay": 3725,
      "rang": 3726,
      "<ss>eth": 3727,
      "<ss>round": 3728,
      "<ss>atory": 3729,
      "except": 3730,
      "carol": 3731,
      "imm": 3732,
      "certain": 3733,
      "ox": 3734,
      "touch": 3735,
      "<ss>omet": 3736,
      "forest": 3737,
      "<ss>ulf": 3738,
      "<ss>ibility": 3739,
      "canad": 3740,
      "joined": 3741,
      "oldham": 3742,
      "establish": 3743,
      "travel": 3744,
      "36": 3745,
      "lines": 3746,
      "placed": 3747,
      "grad": 3748,
      "assemb": 3749,
      "green": 3750,
      "japanese": 3751,
      "average": 3752,
      "dig": 3753,
      "<ss>men": 3754,
      "<ss>stand": 3755,
      "stories": 3756,
      "change": 3757,
      "<ss>ulated": 3758,
      "<ss>ump": 3759,
      "training": 3760,
      "signed": 3761,
      "suggested": 3762,
      "involved": 3763,
      "<ss>ecutive": 3764,
      "bab": 3765,
      "wat": 3766,
      "<ss>ows": 3767,
      "intens": 3768,
      "increasing": 3769,
      "introduced": 3770,
      "45": 3771,
      "pu": 3772,
      "<ss>ties": 3773,
      "scen": 3774,
      "itself": 3775,
      "183": 3776,
      "immedi": 3777,
      "transfer": 3778,
      "vietn": 3779,
      "sometimes": 3780,
      "our": 3781,
      "<ss>uk": 3782,
      "today": 3783,
      "arab": 3784,
      "term": 3785,
      "occup": 3786,
      "structure": 3787,
      "athlet": 3788,
      "olivier": 3789,
      "cat": 3790,
      "<ss>imin": 3791,
      "<ss>aker": 3792,
      "scene": 3793,
      "going": 3794,
      "complete": 3795,
      "mexico": 3796,
      "00": 3797,
      "give": 3798,
      "male": 3799,
      "names": 3800,
      "piec": 3801,
      "zeal": 3802,
      "<ss>gen": 3803,
      "<ss>back": 3804,
      "<ss>ari": 3805,
      "<ss>anna": 3806,
      "irish": 3807,
      "<ss>of": 3808,
      "<ss>yer": 3809,
      "thus": 3810,
      "<ss>ready": 3811,
      "abs": 3812,
      "amb": 3813,
      "india": 3814,
      "airport": 3815,
      "additional": 3816,
      "available": 3817,
      "date": 3818,
      "ran": 3819,
      "sen": 3820,
      "<ss>ask": 3821,
      "staff": 3822,
      "language": 3823,
      "hun": 3824,
      "<ss>down": 3825,
      "whose": 3826,
      "<ss>ector": 3827,
      "plot": 3828,
      "remov": 3829,
      "nearly": 3830,
      "fifth": 3831,
      "je": 3832,
      "ren": 3833,
      "<ss>ases": 3834,
      "told": 3835,
      "<ss>ume": 3836,
      "<ss>porary": 3837,
      "thomas": 3838,
      "woman": 3839,
      "think": 3840,
      "<ss>arily": 3841,
      "chic": 3842,
      "contem": 3843,
      "shows": 3844,
      "friends": 3845,
      "approximately": 3846,
      "dut": 3847,
      "dark": 3848,
      "already": 3849,
      "anth": 3850,
      "<ss>achel": 3851,
      "rob": 3852,
      "surround": 3853,
      "damaged": 3854,
      "appointed": 3855,
      "native": 3856,
      "penn": 3857,
      "size": 3858,
      "deep": 3859,
      "<ss>ections": 3860,
      "compan": 3861,
      "britain": 3862,
      "ca": 3863,
      "<ss>gl": 3864,
      "disp": 3865,
      "winning": 3866,
      "turned": 3867,
      "particip": 3868,
      "issue": 3869,
      "debut": 3870,
      "cathed": 3871,
      "probably": 3872,
      "cou": 3873,
      "hop": 3874,
      "jin": 3875,
      "lay": 3876,
      "might": 3877,
      "<ss>apt": 3878,
      "boy": 3879,
      "students": 3880,
      "lyric": 3881,
      "cad": 3882,
      "espec": 3883,
      "<ss>ote": 3884,
      "<ss>ective": 3885,
      "<ss>quar": 3886,
      "news": 3887,
      "184": 3888,
      "passed": 3889,
      "angel": 3890,
      "pacific": 3891,
      "lord": 3892,
      "<ss>acing": 3893,
      "admin": 3894,
      "twent": 3895,
      "board": 3896,
      "better": 3897,
      "quest": 3898,
      "complet": 3899,
      "captain": 3900,
      "zealand": 3901,
      "cred": 3902,
      "upp": 3903,
      "<ss>zz": 3904,
      "withd": 3905,
      "<ss>ateg": 3906,
      "display": 3907,
      "network": 3908,
      "doll": 3909,
      "daugh": 3910,
      "tar": 3911,
      "<ss>ises": 3912,
      "forward": 3913,
      "notes": 3914,
      "overall": 3915,
      "<ss>inese": 3916,
      "visit": 3917,
      "<ss>osaurus": 3918,
      "especially": 3919,
      "mat": 3920,
      "<ss>oration": 3921,
      "<ss>ability": 3922,
      "exh": 3923,
      "enough": 3924,
      "60": 3925,
      "dro": 3926,
      "failed": 3927,
      "roll": 3928,
      "<ss>bc": 3929,
      "chinese": 3930,
      "space": 3931,
      "bridge": 3932,
      "running": 3933,
      "mixed": 3934,
      "lou": 3935,
      "<ss>bers": 3936,
      "exam": 3937,
      "<ss>ails": 3938,
      "musical": 3939,
      "dub": 3940,
      "mel": 3941,
      "<ss>ocks": 3942,
      "2002": 3943,
      "emp": 3944,
      "wheeler": 3945,
      "limited": 3946,
      "natural": 3947,
      "lake": 3948,
      "<ss>nel": 3949,
      "iii": 3950,
      "ordered": 3951,
      "future": 3952,
      "nin": 3953,
      "<ss>lor": 3954,
      "<ss>fect": 3955,
      "plat": 3956,
      "spent": 3957,
      "includes": 3958,
      "remaining": 3959,
      "moving": 3960,
      "arrived": 3961,
      "changes": 3962,
      "virgin": 3963,
      "department": 3964,
      "education": 3965,
      "ast": 3966,
      "<ss>rd": 3967,
      "ali": 3968,
      "<ss>ells": 3969,
      "usually": 3970,
      "larger": 3971,
      "breed": 3972,
      "peter": 3973,
      "<ss>stein": 3974,
      "canadian": 3975,
      "cathedral": 3976,
      "<ss>onse": 3977,
      "concept": 3978,
      "grant": 3979,
      "slow": 3980,
      "broadcast": 3981,
      "birds": 3982,
      "birth": 3983,
      "latter": 3984,
      "saint": 3985,
      "<ss>ios": 3986,
      "<ss>tr": 3987,
      "<ss>ening": 3988,
      "span": 3989,
      "required": 3990,
      "mountain": 3991,
      "upper": 3992,
      "jer": 3993,
      "<ss>ilities": 3994,
      "decision": 3995,
      "voice": 3996,
      "mr": 3997,
      "nature": 3998,
      "oly": 3999,
      "wide": 4000,
      "comed": 4001,
      "<ss>riage": 4002,
      "traff": 4003,
      "remain": 4004,
      "<ss>ference": 4005,
      "response": 4006,
      "africa": 4007,
      "olymp": 4008,
      "<ss>inct": 4009,
      "<ss>orial": 4010,
      "<ss>agon": 4011,
      "2000": 4012,
      "centre": 4013,
      "reveal": 4014,
      "schol": 4015,
      "prevent": 4016,
      "38": 4017,
      "corn": 4018,
      "iron": 4019,
      "jun": 4020,
      "mention": 4021,
      "<ss>ners": 4022,
      "<ss>oke": 4023,
      "related": 4024,
      "poet": 4025,
      "<ss>ification": 4026,
      "feature": 4027,
      "cm": 4028,
      "mounted": 4029,
      "self": 4030,
      "groups": 4031,
      "professional": 4032,
      "rachel": 4033,
      "tv": 4034,
      "<ss>kn": 4035,
      "<ss>ecting": 4036,
      "score": 4037,
      "blood": 4038,
      "films": 4039,
      "supported": 4040,
      "territory": 4041,
      "bad": 4042,
      "fer": 4043,
      "living": 4044,
      "oce": 4045,
      "<ss>ga": 4046,
      "<ss>ken": 4047,
      "<ss>ca": 4048,
      "<ss>omes": 4049,
      "box": 4050,
      "science": 4051,
      "scott": 4052,
      "ended": 4053,
      "positive": 4054,
      "larg": 4055,
      "billboard": 4056,
      "frequ": 4057,
      "pressure": 4058,
      "mort": 4059,
      "money": 4060,
      "pun": 4061,
      "xen": 4062,
      "health": 4063,
      "finally": 4064,
      "books": 4065,
      "culture": 4066,
      "squadron": 4067,
      "<ss>under": 4068,
      "<ss>uals": 4069,
      "<ss>ifa": 4070,
      "becoming": 4071,
      "charles": 4072,
      "temper": 4073,
      "ga": 4074,
      "haw": 4075,
      "hair": 4076,
      "mom": 4077,
      "<ss>su": 4078,
      "<ss>isc": 4079,
      "always": 4080,
      "shown": 4081,
      "provide": 4082,
      "headquar": 4083,
      "smaller": 4084,
      "ben": 4085,
      "fox": 4086,
      "got": 4087,
      "log": 4088,
      "<ss>wor": 4089,
      "<ss>oles": 4090,
      "trade": 4091,
      "1995": 4092,
      "temple": 4093,
      "discovered": 4094,
      "private": 4095,
      "75": 4096,
      "batter": 4097,
      "<ss>hou": 4098,
      "<ss>ining": 4099,
      "<ss>uments": 4100,
      "minutes": 4101,
      "subject": 4102,
      "shortly": 4103,
      "gods": 4104,
      "bord": 4105,
      "jam": 4106,
      "nations": 4107,
      "<ss>ii": 4108,
      "frank": 4109,
      "experience": 4110,
      "defeated": 4111,
      "dj": 4112,
      "pian": 4113,
      "tax": 4114,
      "<ss>iest": 4115,
      "<ss>key": 4116,
      "bowl": 4117,
      "subsequently": 4118,
      "<ss>selves": 4119,
      "surface": 4120,
      "morn": 4121,
      "van": 4122,
      "<ss>aded": 4123,
      "<ss>ulted": 4124,
      "effects": 4125,
      "cele": 4126,
      "<ss>aring": 4127,
      "<ss>ishop": 4128,
      "<ss>rael": 4129,
      "concert": 4130,
      "personal": 4131,
      "makes": 4132,
      "<ss>eign": 4133,
      "unit": 4134,
      "greater": 4135,
      "calif": 4136,
      "counter": 4137,
      "scientology": 4138,
      "dyn": 4139,
      "pair": 4140,
      "<ss>ault": 4141,
      "<ss>zy": 4142,
      "intended": 4143,
      "<ss>eless": 4144,
      "franc": 4145,
      "intell": 4146,
      "percent": 4147,
      "mostly": 4148,
      "teams": 4149,
      "favor": 4150,
      "idea": 4151,
      "problems": 4152,
      "hus": 4153,
      "master": 4154,
      "pil": 4155,
      "und": 4156,
      "<ss>kan": 4157,
      "<ss>idents": 4158,
      "learn": 4159,
      "numbers": 4160,
      "conclud": 4161,
      "collection": 4162,
      "keep": 4163,
      "captured": 4164,
      "galv": 4165,
      "largely": 4166,
      "coup": 4167,
      "fest": 4168,
      "wing": 4169,
      "<ss>acted": 4170,
      "sev": 4171,
      "<ss>pped": 4172,
      "themselves": 4173,
      "metres": 4174,
      "constant": 4175,
      "arrang": 4176,
      "valley": 4177,
      "market": 4178,
      "referred": 4179,
      "haifa": 4180,
      "primary": 4181,
      "machine": 4182,
      "queen": 4183,
      "likely": 4184,
      "californ": 4185,
      "russ": 4186,
      "sov": 4187,
      "tenn": 4188,
      "<ss>ban": 4189,
      "<ss>well": 4190,
      "<ss>ams": 4191,
      "whole": 4192,
      "<ss>ples": 4193,
      "method": 4194,
      "2016": 4195,
      "product": 4196,
      "croat": 4197,
      "cric": 4198,
      "ded": 4199,
      "gall": 4200,
      "yet": 4201,
      "<ss>iva": 4202,
      "consist": 4203,
      "guard": 4204,
      "oppos": 4205,
      "traffic": 4206,
      "xenon": 4207,
      "cause": 4208,
      "ll": 4209,
      "om": 4210,
      "pow": 4211,
      "<ss>lim": 4212,
      "<ss>ror": 4213,
      "<ss>iser": 4214,
      "israel": 4215,
      "location": 4216,
      "portug": 4217,
      "<ss>uck": 4218,
      "entered": 4219,
      "tower": 4220,
      "aer": 4221,
      "bomb": 4222,
      "gi": 4223,
      "sand": 4224,
      "contains": 4225,
      "amount": 4226,
      "emer": 4227,
      "magn": 4228,
      "square": 4229,
      "ultim": 4230,
      "constructed": 4231,
      "fail": 4232,
      "jose": 4233,
      "<ss>ging": 4234,
      "<ss>oor": 4235,
      "<ss>urs": 4236,
      "che": 4237,
      "adop": 4238,
      "script": 4239,
      "majority": 4240,
      "greatest": 4241,
      "listed": 4242,
      "ranked": 4243,
      "lyrics": 4244,
      "ocean": 4245,
      "headquarters": 4246,
      "morning": 4247,
      "ray": 4248,
      "anal": 4249,
      "chief": 4250,
      "leaving": 4251,
      "cann": 4252,
      "1999": 4253,
      "<ss>ending": 4254,
      "starting": 4255,
      "dum": 4256,
      "kr": 4257,
      "ross": 4258,
      "<ss>gian": 4259,
      "<ss>ds": 4260,
      "<ss>atively": 4261,
      "asp": 4262,
      "<ss>ander": 4263,
      "<ss>ria": 4264,
      "election": 4265,
      "studies": 4266,
      "officers": 4267,
      "whether": 4268,
      "information": 4269,
      "galveston": 4270,
      "fans": 4271,
      "gro": 4272,
      "os": 4273,
      "<ss>mon": 4274,
      "<ss>ergy": 4275,
      "tourn": 4276,
      "competition": 4277,
      "brief": 4278,
      "jewish": 4279,
      "companies": 4280,
      "<ss>aut": 4281,
      "<ss>essed": 4282,
      "<ss>ously": 4283,
      "newsp": 4284,
      "color": 4285,
      "create": 4286,
      "fighting": 4287,
      "journal": 4288,
      "graph": 4289,
      "brad": 4290,
      "poly": 4291,
      "<ss>gress": 4292,
      "<ss>onym": 4293,
      "changed": 4294,
      "celebr": 4295,
      "33": 4296,
      "80": 4297,
      "<ss>fact": 4298,
      "<ss>atops": 4299,
      "beach": 4300,
      "forms": 4301,
      "theme": 4302,
      "publish": 4303,
      "episodes": 4304,
      "concern": 4305,
      "runs": 4306,
      "standard": 4307,
      "soldiers": 4308,
      "proposed": 4309,
      "administ": 4310,
      "lived": 4311,
      "liver": 4312,
      "ple": 4313,
      "takes": 4314,
      "<ss>pool": 4315,
      "<ss>tar": 4316,
      "<ss>jected": 4317,
      "plans": 4318,
      "spir": 4319,
      "attr": 4320,
      "artist": 4321,
      "influence": 4322,
      "independent": 4323,
      "agreed": 4324,
      "launched": 4325,
      "committe": 4326,
      "2nd": 4327,
      "aw": 4328,
      "ale": 4329,
      "bud": 4330,
      "bound": 4331,
      "ce": 4332,
      "lif": 4333,
      "lady": 4334,
      "path": 4335,
      "rom": 4336,
      "<ss>light": 4337,
      "<ss>yr": 4338,
      "<ss>urity": 4339,
      "<ss>change": 4340,
      "ital": 4341,
      "<ss>teen": 4342,
      "bring": 4343,
      "movement": 4344,
      "singles": 4345,
      "constit": 4346,
      "increase": 4347,
      "meaning": 4348,
      "current": 4349,
      "california": 4350,
      "cra": 4351,
      "<ss>rison": 4352,
      "<ss>isions": 4353,
      "<ss>outh": 4354,
      "shoot": 4355,
      "<ss>illery": 4356,
      "compared": 4357,
      "<ss>lands": 4358,
      "care": 4359,
      "assigned": 4360,
      "minute": 4361,
      "catholic": 4362,
      "traditional": 4363,
      "quickly": 4364,
      "here": 4365,
      "rat": 4366,
      "<ss>mas": 4367,
      "<ss>bed": 4368,
      "rein": 4369,
      "<ss>andon": 4370,
      "true": 4371,
      "meant": 4372,
      "revolution": 4373,
      "artillery": 4374,
      "sixth": 4375,
      "determ": 4376,
      "villa": 4377,
      "trees": 4378,
      "double": 4379,
      "occurred": 4380,
      "chicago": 4381,
      "400": 4382,
      "ut": 4383,
      "<ss>yc": 4384,
      "things": 4385,
      "<ss>icated": 4386,
      "leave": 4387,
      "ens": 4388,
      "env": 4389,
      "corps": 4390,
      "inside": 4391,
      "refl": 4392,
      "focus": 4393,
      "hospital": 4394,
      "32": 4395,
      "fol": 4396,
      "latin": 4397,
      "nix": 4398,
      "<ss>umn": 4399,
      "adult": 4400,
      "serious": 4401,
      "phot": 4402,
      "appears": 4403,
      "services": 4404,
      "archit": 4405,
      "victor": 4406,
      "speed": 4407,
      "defeat": 4408,
      "destroyed": 4409,
      "condoms": 4410,
      "investig": 4411,
      "done": 4412,
      "horn": 4413,
      "kick": 4414,
      "tons": 4415,
      "<ss>ba": 4416,
      "sched": 4417,
      "longer": 4418,
      "schools": 4419,
      "consider": 4420,
      "contemporary": 4421,
      "bul": 4422,
      "hund": 4423,
      "mas": 4424,
      "<ss>tained": 4425,
      "<ss>iny": 4426,
      "<ss>anced": 4427,
      "<ss>oms": 4428,
      "asked": 4429,
      "alice": 4430,
      "<ss>ortun": 4431,
      "scot": 4432,
      "finish": 4433,
      "acqu": 4434,
      "complex": 4435,
      "awarded": 4436,
      "source": 4437,
      "hundred": 4438,
      "cand": 4439,
      "fow": 4440,
      "gh": 4441,
      "pit": 4442,
      "purch": 4443,
      "beat": 4444,
      "carried": 4445,
      "access": 4446,
      "something": 4447,
      "polish": 4448,
      "sky": 4449,
      "initial": 4450,
      "proteins": 4451,
      "rapid": 4452,
      "cyclone": 4453,
      "daughter": 4454,
      "300": 4455,
      "cold": 4456,
      "ign": 4457,
      "marriage": 4458,
      "dism": 4459,
      "flow": 4460,
      "1998": 4461,
      "ending": 4462,
      "writers": 4463,
      "brother": 4464,
      "buildings": 4465,
      "conducted": 4466,
      "princip": 4467,
      "ott": 4468,
      "70": 4469,
      "thick": 4470,
      "alkan": 4471,
      "simp": 4472,
      "district": 4473,
      "annual": 4474,
      "associated": 4475,
      "status": 4476,
      "burns": 4477,
      "ancient": 4478,
      "twenty": 4479,
      "fant": 4480,
      "ram": 4481,
      "sav": 4482,
      "<ss>ev": 4483,
      "<ss>eas": 4484,
      "throw": 4485,
      "chall": 4486,
      "<ss>osph": 4487,
      "image": 4488,
      "minister": 4489,
      "african": 4490,
      "empire": 4491,
      "ess": 4492,
      "<ss>oo": 4493,
      "<ss>itation": 4494,
      "<ss>itude": 4495,
      "conference": 4496,
      "chem": 4497,
      "unable": 4498,
      "married": 4499,
      "conserv": 4500,
      "1993": 4501,
      "albums": 4502,
      "commented": 4503,
      "husband": 4504,
      "bank": 4505,
      "dail": 4506,
      "tay": 4507,
      "<ss>ex": 4508,
      "<ss>anas": 4509,
      "spring": 4510,
      "imag": 4511,
      "numerous": 4512,
      "castle": 4513,
      "individual": 4514,
      "scenes": 4515,
      "liverpool": 4516,
      "nixon": 4517,
      "1st": 4518,
      "dra": 4519,
      "habit": 4520,
      "ow": 4521,
      "<ss>kel": 4522,
      "<ss>itor": 4523,
      "chann": 4524,
      "accomp": 4525,
      "positions": 4526,
      "crown": 4527,
      "somers": 4528,
      "producer": 4529,
      "inspired": 4530,
      "47": 4531,
      "<ss>istics": 4532,
      "texas": 4533,
      "<ss>ologist": 4534,
      "polic": 4535,
      "<ss>itting": 4536,
      "tracks": 4537,
      "management": 4538,
      "<ss>aught": 4539,
      "39": 4540,
      "pul": 4541,
      "<ss>pre": 4542,
      "terms": 4543,
      "attacks": 4544,
      "issued": 4545,
      "mosley": 4546,
      "somerset": 4547,
      "bed": 4548,
      "<ss>anta": 4549,
      "earned": 4550,
      "defense": 4551,
      "slight": 4552,
      "safe": 4553,
      "begins": 4554,
      "waters": 4555,
      "piano": 4556,
      "bon": 4557,
      "bol": 4558,
      "bid": 4559,
      "fear": 4560,
      "giving": 4561,
      "<ss>her": 4562,
      "<ss>urg": 4563,
      "20th": 4564,
      "planned": 4565,
      "scr": 4566,
      "marked": 4567,
      "actor": 4568,
      "1996": 4569,
      "portray": 4570,
      "directly": 4571,
      "variety": 4572,
      "edge": 4573,
      "busch": 4574,
      "figure": 4575,
      "document": 4576,
      "baby": 4577,
      "daily": 4578,
      "pick": 4579,
      "pict": 4580,
      "via": 4581,
      "your": 4582,
      "yellow": 4583,
      "<ss>ding": 4584,
      "thunder": 4585,
      "<ss>ands": 4586,
      "search": 4587,
      "<ss>alled": 4588,
      "recover": 4589,
      "performances": 4590,
      "<ss>ylv": 4591,
      "advent": 4592,
      "occasion": 4593,
      "christmas": 4594,
      "experi": 4595,
      "historical": 4596,
      "nuclear": 4597,
      "immediately": 4598,
      "committee": 4599,
      "swe": 4600,
      "<ss>umed": 4601,
      "perfect": 4602,
      "drum": 4603,
      "metal": 4604,
      "organization": 4605,
      "spanish": 4606,
      "soviet": 4607,
      "taylor": 4608,
      "fell": 4609,
      "kind": 4610,
      "<ss>house": 4611,
      "<ss>bery": 4612,
      "abandon": 4613,
      "disapp": 4614,
      "<ss>ension": 4615,
      "transl": 4616,
      "helped": 4617,
      "combat": 4618,
      "fowler": 4619,
      "90": 4620,
      "wound": 4621,
      "<ss>rical": 4622,
      "thir": 4623,
      "<ss>rovers": 4624,
      "rear": 4625,
      "closed": 4626,
      "financ": 4627,
      "leaders": 4628,
      "casual": 4629,
      "suffered": 4630,
      "rhy": 4631,
      "multip": 4632,
      "screen": 4633,
      "42": 4634,
      "gard": 4635,
      "mic": 4636,
      "nation": 4637,
      "<ss>bury": 4638,
      "<ss>cend": 4639,
      "suc": 4640,
      "<ss>ocr": 4641,
      "controvers": 4642,
      "uses": 4643,
      "presence": 4644,
      "crow": 4645,
      "nearby": 4646,
      "impact": 4647,
      "<ss>like": 4648,
      "bass": 4649,
      "bond": 4650,
      "jane": 4651,
      "mol": 4652,
      "row": 4653,
      "<ss>joy": 4654,
      "<ss>once": 4655,
      "stad": 4656,
      "really": 4657,
      "<ss>ify": 4658,
      "<ss>athan": 4659,
      "<ss>ibly": 4660,
      "peace": 4661,
      "mission": 4662,
      "raised": 4663,
      "presented": 4664,
      "federal": 4665,
      "cultural": 4666,
      "susp": 4667,
      "paper": 4668,
      "rif": 4669,
      "sir": 4670,
      "<ss>anded": 4671,
      "<ss>essa": 4672,
      "weap": 4673,
      "prec": 4674,
      "paris": 4675,
      "maxim": 4676,
      "continue": 4677,
      "covered": 4678,
      "vocals": 4679,
      "rule": 4680,
      "diam": 4681,
      "mun": 4682,
      "<ss>sylv": 4683,
      "<ss>erve": 4684,
      "<ss>olf": 4685,
      "fruit": 4686,
      "sport": 4687,
      "composed": 4688,
      "<ss>aha": 4689,
      "attempts": 4690,
      "hands": 4691,
      "figures": 4692,
      "symb": 4693,
      "carolina": 4694,
      "pennsylv": 4695,
      "virginia": 4696,
      "link": 4697,
      "mis": 4698,
      "extended": 4699,
      "incor": 4700,
      "below": 4701,
      "<ss>iami": 4702,
      "course": 4703,
      "<ss>chester": 4704,
      "beyonce": 4705,
      "rough": 4706,
      "sac": 4707,
      "<ss>imony": 4708,
      "attend": 4709,
      "plant": 4710,
      "relief": 4711,
      "<ss>rupt": 4712,
      "dise": 4713,
      "meyer": 4714,
      "canc": 4715,
      "block": 4716,
      "officer": 4717,
      "purp": 4718,
      "selected": 4719,
      "vocal": 4720,
      "bodies": 4721,
      "assembly": 4722,
      "<ss>standing": 4723,
      "architect": 4724,
      "fill": 4725,
      "mile": 4726,
      "ton": 4727,
      "<ss>icted": 4728,
      "wash": 4729,
      "ash": 4730,
      "shar": 4731,
      "deg": 4732,
      "<ss>apo": 4733,
      "promin": 4734,
      "sports": 4735,
      "enjoy": 4736,
      "higher": 4737,
      "1997": 4738,
      "appearances": 4739,
      "hyd": 4740,
      "cricket": 4741,
      "hour": 4742,
      "miami": 4743,
      "ris": 4744,
      "<ss>uing": 4745,
      "<ss>ental": 4746,
      "<ss>uries": 4747,
      "offensive": 4748,
      "text": 4749,
      "countries": 4750,
      "advance": 4751,
      "extre": 4752,
      "germany": 4753,
      "promotion": 4754,
      "<ss>ipped": 4755,
      "needed": 4756,
      "protein": 4757,
      "sexual": 4758,
      "necess": 4759,
      "44": 4760,
      "nico": 4761,
      "rush": 4762,
      "<ss>ires": 4763,
      "altern": 4764,
      "shr": 4765,
      "places": 4766,
      "arts": 4767,
      "compl": 4768,
      "highly": 4769,
      "powerful": 4770,
      "situation": 4771,
      "veh": 4772,
      "cadm": 4773,
      "analys": 4774,
      "cab": 4775,
      "fair": 4776,
      "kak": 4777,
      "lock": 4778,
      "<ss>ils": 4779,
      "<ss>aging": 4780,
      "<ss>overs": 4781,
      "recent": 4782,
      "clim": 4783,
      "bob": 4784,
      "emper": 4785,
      "distance": 4786,
      "edition": 4787,
      "attacked": 4788,
      "allowing": 4789,
      "entertain": 4790,
      "somal": 4791,
      "silver": 4792,
      "comedy": 4793,
      "festival": 4794,
      "da": 4795,
      "ka": 4796,
      "rate": 4797,
      "tel": 4798,
      "<ss>iate": 4799,
      "<ss>gal": 4800,
      "<ss>ny": 4801,
      "<ss>pa": 4802,
      "<ss>pole": 4803,
      "<ss>vement": 4804,
      "<ss>he": 4805,
      "inters": 4806,
      "<ss>ribution": 4807,
      "singer": 4808,
      "opera": 4809,
      "governor": 4810,
      "confir": 4811,
      "labor": 4812,
      "theatre": 4813,
      "pennsylvania": 4814,
      "cadmium": 4815,
      "<ss>isation": 4816,
      "foreign": 4817,
      "<ss>aped": 4818,
      "energy": 4819,
      "resc": 4820,
      "northwest": 4821,
      "movie": 4822,
      "advant": 4823,
      "model": 4824,
      "jackson": 4825,
      "widely": 4826,
      "academy": 4827,
      "removed": 4828,
      "<ss>track": 4829,
      "51": 4830,
      "bor": 4831,
      "bene": 4832,
      "jim": 4833,
      "lot": 4834,
      "<ss>rate": 4835,
      "<ss>ication": 4836,
      "prince": 4837,
      "<ss>ovic": 4838,
      "compr": 4839,
      "means": 4840,
      "offered": 4841,
      "active": 4842,
      "remix": 4843,
      "genus": 4844,
      "protest": 4845,
      "levels": 4846,
      "soundtrack": 4847,
      "copies": 4848,
      "peaked": 4849,
      "scotland": 4850,
      "rout": 4851,
      "wa": 4852,
      "thous": 4853,
      "sha": 4854,
      "scoring": 4855,
      "182": 4856,
      "<ss>izing": 4857,
      "1991": 4858,
      "doct": 4859,
      "chris": 4860,
      "typically": 4861,
      "attempted": 4862,
      "opportun": 4863,
      "combined": 4864,
      "meeting": 4865,
      "respectively": 4866,
      "question": 4867,
      "mess": 4868,
      "sister": 4869,
      "wear": 4870,
      "<ss>hood": 4871,
      "<ss>ros": 4872,
      "reform": 4873,
      "china": 4874,
      "peron": 4875,
      "branch": 4876,
      "musc": 4877,
      "themes": 4878,
      "responsible": 4879,
      "touchdown": 4880,
      "alex": 4881,
      "envir": 4882,
      "stadium": 4883,
      "fast": 4884,
      "lu": 4885,
      "<ss>anz": 4886,
      "anderson": 4887,
      "<ss>ado": 4888,
      "<ss>aven": 4889,
      "<ss>rie": 4890,
      "<ss>abor": 4891,
      "<ss>send": 4892,
      "emb": 4893,
      "dress": 4894,
      "sets": 4895,
      "famil": 4896,
      "describes": 4897,
      "islands": 4898,
      "observed": 4899,
      "activities": 4900,
      "candid": 4901,
      "dun": 4902,
      "sales": 4903,
      "<ss>gs": 4904,
      "<ss>tered": 4905,
      "reign": 4906,
      "appar": 4907,
      "formation": 4908,
      "1992": 4909,
      "winter": 4910,
      "smith": 4911,
      "instr": 4912,
      "heavily": 4913,
      "matches": 4914,
      "audience": 4915,
      "braath": 4916,
      "houses": 4917,
      "vehic": 4918,
      "kakapo": 4919,
      "dream": 4920,
      "lie": 4921,
      "<ss>lict": 4922,
      "<ss>anes": 4923,
      "stra": 4924,
      "parents": 4925,
      "1994": 4926,
      "entr": 4927,
      "rights": 4928,
      "activity": 4929,
      "looking": 4930,
      "reduced": 4931,
      "37": 4932,
      "48": 4933,
      "76": 4934,
      "wave": 4935,
      "<ss>ha": 4936,
      "<ss>isa": 4937,
      "chronic": 4938,
      "<ss>ulations": 4939,
      "resulted": 4940,
      "carry": 4941,
      "minnes": 4942,
      "northeast": 4943,
      "quality": 4944,
      "defence": 4945,
      "armed": 4946,
      "respond": 4947,
      "glob": 4948,
      "domest": 4949,
      "concluded": 4950,
      "minnesota": 4951,
      "mech": 4952,
      "<ss>uated": 4953,
      "<ss>ican": 4954,
      "stating": 4955,
      "<ss>ems": 4956,
      "residents": 4957,
      "calling": 4958,
      "townsend": 4959,
      "reports": 4960,
      "extr": 4961,
      "contrast": 4962,
      "conditions": 4963,
      "completely": 4964,
      "hawai": 4965,
      "spirit": 4966,
      "italian": 4967,
      "channel": 4968,
      "environ": 4969,
      "3rd": 4970,
      "et": 4971,
      "jul": 4972,
      "<ss>bre": 4973,
      "<ss>inal": 4974,
      "<ss>isl": 4975,
      "<ss>ura": 4976,
      "<ss>utions": 4977,
      "<ss>rial": 4978,
      "managed": 4979,
      "<ss>athus": 4980,
      "featuring": 4981,
      "efforts": 4982,
      "europ": 4983,
      "separate": 4984,
      "rosebery": 4985,
      "kilomet": 4986,
      "revealed": 4987,
      "intellig": 4988,
      "folk": 4989,
      "bh": 4990,
      "overs": 4991,
      "tun": 4992,
      "<ss>hold": 4993,
      "<ss>beer": 4994,
      "<ss>ented": 4995,
      "shiva": 4996,
      "<ss>ift": 4997,
      "<ss>ella": 4998,
      "clar": 4999,
      "<ss>ogue": 5000,
      "plays": 5001,
      "finals": 5002,
      "liber": 5003,
      "specim": 5004,
      "artists": 5005,
      "description": 5006,
      "refused": 5007,
      "progress": 5008,
      "declared": 5009,
      "honor": 5010,
      "eye": 5011,
      "meyerbeer": 5012,
      "hors": 5013,
      "lib": 5014,
      "sle": 5015,
      "<ss>bird": 5016,
      "<ss>esb": 5017,
      "<ss>ays": 5018,
      "webs": 5019,
      "finkel": 5020,
      "therefore": 5021,
      "1970": 5022,
      "issues": 5023,
      "walpole": 5024,
      "survey": 5025,
      "independence": 5026,
      "strugg": 5027,
      "finkelstein": 5028,
      "52": 5029,
      "categ": 5030,
      "fat": 5031,
      "tessa": 5032,
      "yue": 5033,
      "<ss>atives": 5034,
      "<ss>ingu": 5035,
      "alle": 5036,
      "<ss>emic": 5037,
      "coming": 5038,
      "<ss>essions": 5039,
      "sust": 5040,
      "offer": 5041,
      "security": 5042,
      "seasons": 5043,
      "150": 5044,
      "expected": 5045,
      "titles": 5046,
      "elev": 5047,
      "legisl": 5048,
      "naval": 5049,
      "casualties": 5050,
      "emperor": 5051,
      "sr": 5052,
      "sense": 5053,
      "<ss>iro": 5054,
      "<ss>stone": 5055,
      "<ss>road": 5056,
      "grass": 5057,
      "weaken": 5058,
      "actions": 5059,
      "charl": 5060,
      "mainly": 5061,
      "<ss>apped": 5062,
      "types": 5063,
      "hait": 5064,
      "illino": 5065,
      "words": 5066,
      "border": 5067,
      "ottoman": 5068,
      "nicole": 5069,
      "ec": 5070,
      "nest": 5071,
      "push": 5072,
      "<ss>hl": 5073,
      "scale": 5074,
      "manu": 5075,
      "becomes": 5076,
      "weather": 5077,
      "attention": 5078,
      "actually": 5079,
      "job": 5080,
      "assault": 5081,
      "demonst": 5082,
      "behav": 5083,
      "illust": 5084,
      "excav": 5085,
      "practice": 5086,
      "34": 5087,
      "core": 5088,
      "ros": 5089,
      "sor": 5090,
      "<ss>icip": 5091,
      "<ss>use": 5092,
      "<ss>ulpt": 5093,
      "neigh": 5094,
      "spect": 5095,
      "recomm": 5096,
      "sculpt": 5097,
      "struck": 5098,
      "tournament": 5099,
      "reinfor": 5100,
      "braathens": 5101,
      "dog": 5102,
      "dang": 5103,
      "lb": 5104,
      "luc": 5105,
      "ps": 5106,
      "roles": 5107,
      "<ss>lers": 5108,
      "<ss>iber": 5109,
      "advert": 5110,
      "actress": 5111,
      "write": 5112,
      "columb": 5113,
      "legal": 5114,
      "viewers": 5115,
      "primarily": 5116,
      "letters": 5117,
      "hotel": 5118,
      "vietnam": 5119,
      "ultimately": 5120,
      "entertainment": 5121,
      "manufact": 5122,
      "bishop": 5123,
      "mog": 5124,
      "rug": 5125,
      "<ss>ek": 5126,
      "<ss>met": 5127,
      "<ss>era": 5128,
      "<ss>onents": 5129,
      "<ss>room": 5130,
      "alone": 5131,
      "cong": 5132,
      "1990": 5133,
      "termin": 5134,
      "johnson": 5135,
      "planet": 5136,
      "accepted": 5137,
      "achieved": 5138,
      "sequence": 5139,
      "portugues": 5140,
      "cannot": 5141,
      "bott": 5142,
      "fully": 5143,
      "tree": 5144,
      "<ss>rid": 5145,
      "<ss>enue": 5146,
      "<ss>alty": 5147,
      "react": 5148,
      "<ss>essor": 5149,
      "elected": 5150,
      "qual": 5151,
      "colony": 5152,
      "foundation": 5153,
      "distinct": 5154,
      "farm": 5155,
      "authority": 5156,
      "rainfall": 5157,
      "newspaper": 5158,
      "portuguese": 5159,
      "dur": 5160,
      "mob": 5161,
      "nick": 5162,
      "tint": 5163,
      "<ss>sen": 5164,
      "<ss>rain": 5165,
      "<ss>jo": 5166,
      "<ss>ano": 5167,
      "<ss>asy": 5168,
      "step": 5169,
      "chair": 5170,
      "<ss>berg": 5171,
      "prison": 5172,
      "spain": 5173,
      "spread": 5174,
      "apple": 5175,
      "181": 5176,
      "workers": 5177,
      "<ss>ledge": 5178,
      "<ss>elsh": 5179,
      "alongside": 5180,
      "exped": 5181,
      "antimony": 5182,
      "authorities": 5183,
      "khan": 5184,
      "flooding": 5185,
      "measure": 5186,
      "moment": 5187,
      "slightly": 5188,
      "incorpor": 5189,
      "es": 5190,
      "hers": 5191,
      "mu": 5192,
      "pound": 5193,
      "ridge": 5194,
      "<ss>mond": 5195,
      "tru": 5196,
      "<ss>eller": 5197,
      "broken": 5198,
      "1986": 5199,
      "owned": 5200,
      "battery": 5201,
      "data": 5202,
      "males": 5203,
      "sarn": 5204,
      "welsh": 5205,
      "<ss>lies": 5206,
      "<ss>aen": 5207,
      "<ss>bon": 5208,
      "inches": 5209,
      "<ss>oper": 5210,
      "orb": 5211,
      "computer": 5212,
      "twice": 5213,
      "perman": 5214,
      "fey": 5215,
      "defensive": 5216,
      "surre": 5217,
      "artic": 5218,
      "concent": 5219,
      "campus": 5220,
      "conflict": 5221,
      "skin": 5222,
      "standing": 5223,
      "affected": 5224,
      "journey": 5225,
      "<ss>ceeded": 5226,
      "expressed": 5227,
      "murder": 5228,
      "<ss>onymous": 5229,
      "domestic": 5230,
      "mechan": 5231,
      "tintin": 5232,
      "aid": 5233,
      "bull": 5234,
      "nesb": 5235,
      "zhou": 5236,
      "<ss>uff": 5237,
      "<ss>cript": 5238,
      "<ss>ims": 5239,
      "height": 5240,
      "compar": 5241,
      "180": 5242,
      "battles": 5243,
      "showed": 5244,
      "titled": 5245,
      "convers": 5246,
      "historic": 5247,
      "doub": 5248,
      "officials": 5249,
      "ceres": 5250,
      "apart": 5251,
      "flying": 5252,
      "physical": 5253,
      "louis": 5254,
      "disease": 5255,
      "rid": 5256,
      "ta": 5257,
      "wed": 5258,
      "<ss>kh": 5259,
      "<ss>ych": 5260,
      "<ss>ena": 5261,
      "andrew": 5262,
      "toward": 5263,
      "<ss>uled": 5264,
      "neut": 5265,
      "spot": 5266,
      "<ss>astic": 5267,
      "ability": 5268,
      "direction": 5269,
      "barrow": 5270,
      "varanas": 5271,
      "avoid": 5272,
      "deliv": 5273,
      "cerem": 5274,
      "environment": 5275,
      "varanasi": 5276,
      "dv": 5277,
      "kar": 5278,
      "<ss>ka": 5279,
      "<ss>kin": 5280,
      "<ss>bl": 5281,
      "<ss>enant": 5282,
      "<ss>igan": 5283,
      "<ss>rian": 5284,
      "cook": 5285,
      "tend": 5286,
      "says": 5287,
      "influenced": 5288,
      "odaen": 5289,
      "snow": 5290,
      "angeles": 5291,
      "mentioned": 5292,
      "nesbitt": 5293,
      "49": 5294,
      "lives": 5295,
      "sides": 5296,
      "<ss>hel": 5297,
      "<ss>cing": 5298,
      "<ss>ols": 5299,
      "eva": 5300,
      "acting": 5301,
      "produce": 5302,
      "continues": 5303,
      "<ss>while": 5304,
      "propos": 5305,
      "earliest": 5306,
      "sites": 5307,
      "narrow": 5308,
      "encour": 5309,
      "individuals": 5310,
      "composition": 5311,
      "dumont": 5312,
      "financial": 5313,
      "advantage": 5314,
      "illinois": 5315,
      "odaenathus": 5316,
      "cities": 5317,
      "din": 5318,
      "jump": 5319,
      "oil": 5320,
      "<ss>ya": 5321,
      "<ss>onna": 5322,
      "alab": 5323,
      "<ss>illa": 5324,
      "else": 5325,
      "singing": 5326,
      "founded": 5327,
      "lands": 5328,
      "<ss>ancy": 5329,
      "resulting": 5330,
      "torped": 5331,
      "engineer": 5332,
      "admir": 5333,
      "digital": 5334,
      "exhib": 5335,
      "olympic": 5336,
      "adopted": 5337,
      "mogad": 5338,
      "sarnia": 5339,
      "torpedo": 5340,
      "65": 5341,
      "cin": 5342,
      "hope": 5343,
      "executive": 5344,
      "appeal": 5345,
      "studios": 5346,
      "officially": 5347,
      "basis": 5348,
      "represented": 5349,
      "equip": 5350,
      "sources": 5351,
      "potential": 5352,
      "withdraw": 5353,
      "dedicated": 5354,
      "analysis": 5355,
      "cit": 5356,
      "<ss>oud": 5357,
      "contain": 5358,
      "manchester": 5359,
      "agric": 5360,
      "doing": 5361,
      "capture": 5362,
      "pattern": 5363,
      "chapel": 5364,
      "losing": 5365,
      "wilhel": 5366,
      "surrounding": 5367,
      "scholars": 5368,
      "thunderbird": 5369,
      "dance": 5370,
      "faced": 5371,
      "vic": 5372,
      "vess": 5373,
      "<ss>lings": 5374,
      "<ss>rane": 5375,
      "<ss>writ": 5376,
      "<ss>aming": 5377,
      "spl": 5378,
      "note": 5379,
      "boat": 5380,
      "relatively": 5381,
      "18th": 5382,
      "emph": 5383,
      "drive": 5384,
      "student": 5385,
      "medical": 5386,
      "effort": 5387,
      "extra": 5388,
      "require": 5389,
      "letter": 5390,
      "transferred": 5391,
      "maximum": 5392,
      "washington": 5393,
      "gang": 5394,
      "kg": 5395,
      "<ss>een": 5396,
      "<ss>bour": 5397,
      "<ss>tv": 5398,
      "frag": 5399,
      "attended": 5400,
      "chor": 5401,
      "<ss>ulate": 5402,
      "<ss>odon": 5403,
      "<ss>ills": 5404,
      "unlike": 5405,
      "<ss>iana": 5406,
      "compound": 5407,
      "feed": 5408,
      "1988": 5409,
      "older": 5410,
      "tried": 5411,
      "organized": 5412,
      "clean": 5413,
      "function": 5414,
      "females": 5415,
      "freeway": 5416,
      "piece": 5417,
      "agricult": 5418,
      "eat": 5419,
      "rod": 5420,
      "<ss>kare": 5421,
      "<ss>rect": 5422,
      "<ss>eck": 5423,
      "<ss>adel": 5424,
      "conver": 5425,
      "proved": 5426,
      "<ss>ishu": 5427,
      "<ss>gend": 5428,
      "notable": 5429,
      "imper": 5430,
      "charge": 5431,
      "opin": 5432,
      "helms": 5433,
      "element": 5434,
      "golden": 5435,
      "meanwhile": 5436,
      "beyond": 5437,
      "target": 5438,
      "omaha": 5439,
      "joseph": 5440,
      "alabama": 5441,
      "46": 5442,
      "64": 5443,
      "die": 5444,
      "eth": 5445,
      "kent": 5446,
      "<ss>uous": 5447,
      "shape": 5448,
      "<ss>umber": 5449,
      "<ss>ogen": 5450,
      "images": 5451,
      "flag": 5452,
      "divided": 5453,
      "edward": 5454,
      "designated": 5455,
      "possibly": 5456,
      "believe": 5457,
      "baseball": 5458,
      "animal": 5459,
      "archaeological": 5460,
      "literature": 5461,
      "intensity": 5462,
      "determined": 5463,
      "cust": 5464,
      "cub": 5465,
      "dar": 5466,
      "draft": 5467,
      "rar": 5468,
      "<ss>iations": 5469,
      "<ss>ta": 5470,
      "<ss>wide": 5471,
      "<ss>itness": 5472,
      "plum": 5473,
      "prime": 5474,
      "<ss>izes": 5475,
      "weight": 5476,
      "follows": 5477,
      "1960s": 5478,
      "repe": 5479,
      "trip": 5480,
      "results": 5481,
      "charts": 5482,
      "paid": 5483,
      "argent": 5484,
      "innis": 5485,
      "institute": 5486,
      "dissip": 5487,
      "mogadishu": 5488,
      "fix": 5489,
      "md": 5490,
      "mouth": 5491,
      "sens": 5492,
      "ingr": 5493,
      "<ss>station": 5494,
      "unkn": 5495,
      "content": 5496,
      "arms": 5497,
      "creation": 5498,
      "1980s": 5499,
      "1940": 5500,
      "1964": 5501,
      "returning": 5502,
      "supporting": 5503,
      "restaur": 5504,
      "visual": 5505,
      "solo": 5506,
      "historian": 5507,
      "structures": 5508,
      "homes": 5509,
      "treaty": 5510,
      "mccall": 5511,
      "simply": 5512,
      "wilhelm": 5513,
      "emphas": 5514,
      "iv": 5515,
      "jup": 5516,
      "kore": 5517,
      "pine": 5518,
      "paint": 5519,
      "rit": 5520,
      "sis": 5521,
      "<ss>lied": 5522,
      "<ss>ero": 5523,
      "onto": 5524,
      "reaction": 5525,
      "<ss>otes": 5526,
      "<ss>osh": 5527,
      "<ss>agan": 5528,
      "underground": 5529,
      "mind": 5530,
      "portion": 5531,
      "kept": 5532,
      "importance": 5533,
      "projects": 5534,
      "purs": 5535,
      "technology": 5536,
      "knowledge": 5537,
      "growing": 5538,
      "secretary": 5539,
      "economic": 5540,
      "couple": 5541,
      "entrance": 5542,
      "rugby": 5543,
      "equipment": 5544,
      "lane": 5545,
      "rare": 5546,
      "<ss>wise": 5547,
      "<ss>urb": 5548,
      "<ss>ety": 5549,
      "<ss>ette": 5550,
      "chos": 5551,
      "deploy": 5552,
      "legend": 5553,
      "perm": 5554,
      "playstation": 5555,
      "filming": 5556,
      "depth": 5557,
      "leader": 5558,
      "grew": 5559,
      "weekly": 5560,
      "<ss>where": 5561,
      "argued": 5562,
      "railway": 5563,
      "53": 5564,
      "55": 5565,
      "au": 5566,
      "eag": 5567,
      "rise": 5568,
      "rih": 5569,
      "<ss>oe": 5570,
      "share": 5571,
      "<ss>istry": 5572,
      "<ss>asty": 5573,
      "weak": 5574,
      "flu": 5575,
      "miner": 5576,
      "guest": 5577,
      "landing": 5578,
      "publication": 5579,
      "suggests": 5580,
      "criticism": 5581,
      "hamels": 5582,
      "buried": 5583,
      "currently": 5584,
      "<ss>timore": 5585,
      "baltimore": 5586,
      "website": 5587,
      "rihanna": 5588,
      "gained": 5589,
      "les": 5590,
      "tact": 5591,
      "<ss>mes": 5592,
      "<ss>esis": 5593,
      "<ss>acement": 5594,
      "lew": 5595,
      "coal": 5596,
      "belong": 5597,
      "advanced": 5598,
      "causing": 5599,
      "reference": 5600,
      "palest": 5601,
      "criticized": 5602,
      "orders": 5603,
      "label": 5604,
      "volume": 5605,
      "religion": 5606,
      "escape": 5607,
      "synth": 5608,
      "breeding": 5609,
      "djed": 5610,
      "jupiter": 5611,
      "56": 5612,
      "5th": 5613,
      "ba": 5614,
      "ib": 5615,
      "math": 5616,
      "oh": 5617,
      "<ss>ez": 5618,
      "<ss>rative": 5619,
      "<ss>fl": 5620,
      "<ss>eratops": 5621,
      "<ss>edar": 5622,
      "inch": 5623,
      "stock": 5624,
      "<ss>irt": 5625,
      "adj": 5626,
      "containing": 5627,
      "newly": 5628,
      "<ss>prise": 5629,
      "democr": 5630,
      "reaching": 5631,
      "debuted": 5632,
      "claims": 5633,
      "property": 5634,
      "dismiss": 5635,
      "abandoned": 5636,
      "multiple": 5637,
      "micro": 5638,
      "prominent": 5639,
      "horses": 5640,
      "djedkare": 5641,
      "bru": 5642,
      "hib": 5643,
      "outer": 5644,
      "<ss>och": 5645,
      "<ss>po": 5646,
      "<ss>vin": 5647,
      "theory": 5648,
      "<ss>orter": 5649,
      "beaut": 5650,
      "shel": 5651,
      "excl": 5652,
      "enemy": 5653,
      "column": 5654,
      "defin": 5655,
      "defend": 5656,
      "1947": 5657,
      "glass": 5658,
      "personnel": 5659,
      "torres": 5660,
      "volun": 5661,
      "encoun": 5662,
      "faith": 5663,
      "administration": 5664,
      "chosen": 5665,
      "43": 5666,
      "ahead": 5667,
      "bell": 5668,
      "jon": 5669,
      "kings": 5670,
      "mut": 5671,
      "<ss>ati": 5672,
      "<ss>enge": 5673,
      "rejected": 5674,
      "<ss>osoph": 5675,
      "try": 5676,
      "trou": 5677,
      "<ss>ached": 5678,
      "consecutive": 5679,
      "120": 5680,
      "youth": 5681,
      "cases": 5682,
      "favour": 5683,
      "strike": 5684,
      "cells": 5685,
      "seems": 5686,
      "granted": 5687,
      "molec": 5688,
      "unknown": 5689,
      "cart": 5690,
      "igu": 5691,
      "ry": 5692,
      "atm": 5693,
      "deities": 5694,
      "secondary": 5695,
      "dram": 5696,
      "1941": 5697,
      "visited": 5698,
      "commonly": 5699,
      "<ss>white": 5700,
      "settlement": 5701,
      "condition": 5702,
      "chapter": 5703,
      "increasingly": 5704,
      "scottish": 5705,
      "francis": 5706,
      "crazy": 5707,
      "straight": 5708,
      "applewhite": 5709,
      "bc": 5710,
      "bbc": 5711,
      "haven": 5712,
      "<ss>la": 5713,
      "<ss>lam": 5714,
      "<ss>more": 5715,
      "anonymous": 5716,
      "unf": 5717,
      "train": 5718,
      "truth": 5719,
      "<ss>phia": 5720,
      "regions": 5721,
      "max": 5722,
      "seconds": 5723,
      "broke": 5724,
      "address": 5725,
      "1987": 5726,
      "barb": 5727,
      "<ss>azz": 5728,
      "passing": 5729,
      "towns": 5730,
      "systems": 5731,
      "versions": 5732,
      "request": 5733,
      "growth": 5734,
      "identified": 5735,
      "problem": 5736,
      "nominated": 5737,
      "senior": 5738,
      "temperature": 5739,
      "wounded": 5740,
      "risk": 5741,
      "dvd": 5742,
      "<ss>adelphia": 5743,
      "atmosph": 5744,
      "41": 5745,
      "bat": 5746,
      "greek": 5747,
      "hart": 5748,
      "kir": 5749,
      "ring": 5750,
      "rac": 5751,
      "save": 5752,
      "<ss>dh": 5753,
      "thing": 5754,
      "<ss>ala": 5755,
      "congress": 5756,
      "sud": 5757,
      "unique": 5758,
      "trust": 5759,
      "operated": 5760,
      "1970s": 5761,
      "promoted": 5762,
      "killing": 5763,
      "philosoph": 5764,
      "egyptian": 5765,
      "fantasy": 5766,
      "9th": 5767,
      "cry": 5768,
      "dw": 5769,
      "fame": 5770,
      "fash": 5771,
      "opt": 5772,
      "rub": 5773,
      "selling": 5774,
      "<ss>lines": 5775,
      "<ss>iant": 5776,
      "<ss>ike": 5777,
      "<ss>mun": 5778,
      "<ss>iced": 5779,
      "<ss>ads": 5780,
      "stations": 5781,
      "fired": 5782,
      "applic": 5783,
      "nothing": 5784,
      "colour": 5785,
      "aired": 5786,
      "slam": 5787,
      "1984": 5788,
      "1989": 5789,
      "famous": 5790,
      "1972": 5791,
      "roads": 5792,
      "opposed": 5793,
      "mike": 5794,
      "ode": 5795,
      "agreement": 5796,
      "memorial": 5797,
      "urban": 5798,
      "premier": 5799,
      "motor": 5800,
      "croatia": 5801,
      "accompan": 5802,
      "4th": 5803,
      "54": 5804,
      "bern": 5805,
      "camb": 5806,
      "hyp": 5807,
      "mig": 5808,
      "tell": 5809,
      "<ss>nest": 5810,
      "<ss>aine": 5811,
      "<ss>ighth": 5812,
      "<ss>abb": 5813,
      "arc": 5814,
      "<ss>ordin": 5815,
      "serve": 5816,
      "cool": 5817,
      "<ss>rick": 5818,
      "1985": 5819,
      "repair": 5820,
      "raid": 5821,
      "swed": 5822,
      "controlled": 5823,
      "biograph": 5824,
      "virt": 5825,
      "animals": 5826,
      "choice": 5827,
      "ai": 5828,
      "ari": 5829,
      "hms": 5830,
      "mand": 5831,
      "none": 5832,
      "sin": 5833,
      "tan": 5834,
      "tail": 5835,
      "vert": 5836,
      "<ss>asc": 5837,
      "<ss>rey": 5838,
      "<ss>stream": 5839,
      "stan": 5840,
      "sund": 5841,
      "<ss>ips": 5842,
      "boats": 5843,
      "contact": 5844,
      "gram": 5845,
      "reserv": 5846,
      "interchange": 5847,
      "indu": 5848,
      "filmed": 5849,
      "writes": 5850,
      "drama": 5851,
      "1960": 5852,
      "myth": 5853,
      "explained": 5854,
      "speak": 5855,
      "ideas": 5856,
      "cardiff": 5857,
      "subsequent": 5858,
      "semi": 5859,
      "pieces": 5860,
      "cougar": 5861,
      "poetry": 5862,
      "crowd": 5863,
      "confirmed": 5864,
      "bit": 5865,
      "gord": 5866,
      "gives": 5867,
      "lov": 5868,
      "rog": 5869,
      "vul": 5870,
      "<ss>icient": 5871,
      "reun": 5872,
      "chains": 5873,
      "leon": 5874,
      "impress": 5875,
      "bright": 5876,
      "joint": 5877,
      "consisted": 5878,
      "register": 5879,
      "invasion": 5880,
      "landfall": 5881,
      "1944": 5882,
      "130": 5883,
      "trial": 5884,
      "keats": 5885,
      "calc": 5886,
      "michigan": 5887,
      "philadelphia": 5888,
      "pitched": 5889,
      "regarded": 5890,
      "rapidly": 5891,
      "weapons": 5892,
      "families": 5893,
      "herself": 5894,
      "bats": 5895,
      "dry": 5896,
      "fal": 5897,
      "mir": 5898,
      "matter": 5899,
      "<ss>iqu": 5900,
      "<ss>don": 5901,
      "<ss>aust": 5902,
      "<ss>icks": 5903,
      "shell": 5904,
      "<ss>umes": 5905,
      "send": 5906,
      "<ss>illo": 5907,
      "extend": 5908,
      "resemb": 5909,
      "maria": 5910,
      "actors": 5911,
      "mush": 5912,
      "highlight": 5913,
      "<ss>awa": 5914,
      "minim": 5915,
      "1990s": 5916,
      "transit": 5917,
      "maintained": 5918,
      "<ss>resp": 5919,
      "humans": 5920,
      "value": 5921,
      "battalions": 5922,
      "williams": 5923,
      "premi": 5924,
      "injury": 5925,
      "dropped": 5926,
      "seventh": 5927,
      "failure": 5928,
      "aspects": 5929,
      "57": 5930,
      "dani": 5931,
      "gulf": 5932,
      "<ss>ls": 5933,
      "<ss>inity": 5934,
      "why": 5935,
      "<ss>otyp": 5936,
      "fresh": 5937,
      "carl": 5938,
      "retired": 5939,
      "southeast": 5940,
      "phase": 5941,
      "<ss>fully": 5942,
      "steam": 5943,
      "province": 5944,
      "extensive": 5945,
      "belief": 5946,
      "fung": 5947,
      "penins": 5948,
      "prepared": 5949,
      "dutch": 5950,
      "600": 5951,
      "bost": 5952,
      "catch": 5953,
      "dial": 5954,
      "drop": 5955,
      "gain": 5956,
      "ice": 5957,
      "mist": 5958,
      "rot": 5959,
      "<ss>ja": 5960,
      "andy": 5961,
      "<ss>iring": 5962,
      "italy": 5963,
      "chel": 5964,
      "<ss>uli": 5965,
      "orch": 5966,
      "<ss>ieval": 5967,
      "abu": 5968,
      "flank": 5969,
      "mah": 5970,
      "southwest": 5971,
      "concer": 5972,
      "steve": 5973,
      "medieval": 5974,
      "km2": 5975,
      "protection": 5976,
      "laid": 5977,
      "connected": 5978,
      "significantly": 5979,
      "creating": 5980,
      "jeff": 5981,
      "sustained": 5982,
      "bes": 5983,
      "gas": 5984,
      "kur": 5985,
      "rival": 5986,
      "wolf": 5987,
      "<ss>onom": 5988,
      "<ss>itable": 5989,
      "trail": 5990,
      "adapt": 5991,
      "perh": 5992,
      "emotion": 5993,
      "americans": 5994,
      "supply": 5995,
      "passes": 5996,
      "basket": 5997,
      "champion": 5998,
      "finding": 5999,
      "facilities": 6000,
      "walls": 6001,
      "producers": 6002,
      "recognized": 6003,
      "budget": 6004,
      "scheduled": 6005,
      "lieut": 6006,
      "96": 6007,
      "gab": 6008,
      "hem": 6009,
      "hell": 6010,
      "sought": 6011,
      "wish": 6012,
      "<ss>ees": 6013,
      "thin": 6014,
      "<ss>aria": 6015,
      "<ss>rete": 6016,
      "stones": 6017,
      "chose": 6018,
      "reconst": 6019,
      "cooper": 6020,
      "parall": 6021,
      "monument": 6022,
      "<ss>amese": 6023,
      "crus": 6024,
      "distingu": 6025,
      "starts": 6026,
      "delay": 6027,
      "surviv": 6028,
      "popularity": 6029,
      "nucleus": 6030,
      "powers": 6031,
      "conservation": 6032,
      "necessary": 6033,
      "intelligence": 6034,
      "surrender": 6035,
      "perhaps": 6036,
      "cited": 6037,
      "fought": 6038,
      "il": 6039,
      "rating": 6040,
      "<ss>mark": 6041,
      "<ss>can": 6042,
      "<ss>ato": 6043,
      "<ss>isy": 6044,
      "<ss>theless": 6045,
      "<ss>olved": 6046,
      "altar": 6047,
      "consequ": 6048,
      "comic": 6049,
      "exec": 6050,
      "unus": 6051,
      "recently": 6052,
      "soft": 6053,
      "generation": 6054,
      "1981": 6055,
      "<ss>apping": 6056,
      "household": 6057,
      "losses": 6058,
      "treatment": 6059,
      "martin": 6060,
      "vietnamese": 6061,
      "frequently": 6062,
      "policy": 6063,
      "libr": 6064,
      "iguan": 6065,
      "dated": 6066,
      "motion": 6067,
      "naz": 6068,
      "nathan": 6069,
      "<ss>cription": 6070,
      "<ss>fort": 6071,
      "<ss>eda": 6072,
      "seg": 6073,
      "<ss>ifying": 6074,
      "cole": 6075,
      "ends": 6076,
      "crash": 6077,
      "depend": 6078,
      "prompt": 6079,
      "priest": 6080,
      "regarding": 6081,
      "employed": 6082,
      "gradually": 6083,
      "constitution": 6084,
      "degree": 6085,
      "bottom": 6086,
      "thunderbirds": 6087,
      "cambod": 6088,
      "700": 6089,
      "bin": 6090,
      "fellow": 6091,
      "ron": 6092,
      "sap": 6093,
      "wis": 6094,
      "<ss>oen": 6095,
      "<ss>onent": 6096,
      "<ss>elle": 6097,
      "shaped": 6098,
      "comes": 6099,
      "<ss>sey": 6100,
      "contained": 6101,
      "gray": 6102,
      "prefer": 6103,
      "attorn": 6104,
      "wars": 6105,
      "<ss>ologists": 6106,
      "<ss>oys": 6107,
      "distribution": 6108,
      "179": 6109,
      "steph": 6110,
      "collected": 6111,
      "1939": 6112,
      "convention": 6113,
      "finds": 6114,
      "industrial": 6115,
      "wrest": 6116,
      "safety": 6117,
      "conduct": 6118,
      "oxford": 6119,
      "pilot": 6120,
      "<ss>eastern": 6121,
      "psych": 6122,
      "peninsula": 6123,
      "attorney": 6124,
      "73": 6125,
      "eld": 6126,
      "kang": 6127,
      "nc": 6128,
      "vice": 6129,
      "<ss>lusion": 6130,
      "<ss>thur": 6131,
      "<ss>iments": 6132,
      "cham": 6133,
      "lev": 6134,
      "<ss>sea": 6135,
      "contributed": 6136,
      "join": 6137,
      "gameplay": 6138,
      "wins": 6139,
      "worldwide": 6140,
      "severe": 6141,
      "simple": 6142,
      "17th": 6143,
      "1942": 6144,
      "serving": 6145,
      "allows": 6146,
      "macle": 6147,
      "improved": 6148,
      "negative": 6149,
      "<ss>borough": 6150,
      "athletes": 6151,
      "astron": 6152,
      "habitat": 6153,
      "cinem": 6154,
      "fashion": 6155,
      "gordon": 6156,
      "62": 6157,
      "61": 6158,
      "95": 6159,
      "aston": 6160,
      "cd": 6161,
      "egg": 6162,
      "fan": 6163,
      "lisa": 6164,
      "nba": 6165,
      "sie": 6166,
      "ty": 6167,
      "witness": 6168,
      "<ss>ias": 6169,
      "<ss>ua": 6170,
      "store": 6171,
      "<ss>ivity": 6172,
      "alf": 6173,
      "frame": 6174,
      "<ss>opes": 6175,
      "neither": 6176,
      "<ss>acks": 6177,
      "incident": 6178,
      "<ss>ansas": 6179,
      "portra": 6180,
      "concrete": 6181,
      "<ss>ancing": 6182,
      "1950s": 6183,
      "1918": 6184,
      "turner": 6185,
      "solid": 6186,
      "effective": 6187,
      "programs": 6188,
      "electric": 6189,
      "championships": 6190,
      "entirely": 6191,
      "commissioned": 6192,
      "economy": 6193,
      "fictional": 6194,
      "dynasty": 6195,
      "challeng": 6196,
      "volunte": 6197,
      "lieutenant": 6198,
      "800": 6199,
      "97": 6200,
      "cav": 6201,
      "dates": 6202,
      "hind": 6203,
      "jain": 6204,
      "pap": 6205,
      "ts": 6206,
      "<ss>iot": 6207,
      "<ss>ris": 6208,
      "<ss>rig": 6209,
      "<ss>iled": 6210,
      "stages": 6211,
      "<ss>eton": 6212,
      "items": 6213,
      "pros": 6214,
      "<ss>apes": 6215,
      "boise": 6216,
      "<ss>outs": 6217,
      "mario": 6218,
      "floor": 6219,
      "canal": 6220,
      "centuries": 6221,
      "muslim": 6222,
      "setting": 6223,
      "transm": 6224,
      "1968": 6225,
      "1969": 6226,
      "expanded": 6227,
      "sentence": 6228,
      "turk": 6229,
      "earthqu": 6230,
      "reasons": 6231,
      "negot": 6232,
      "normal": 6233,
      "slowly": 6234,
      "drawn": 6235,
      "sweet": 6236,
      "europium": 6237,
      "kilometres": 6238,
      "imperial": 6239,
      "lewis": 6240,
      "exclus": 6241,
      "boston": 6242,
      "dota": 6243,
      "gully": 6244,
      "han": 6245,
      "jac": 6246,
      "poll": 6247,
      "tall": 6248,
      "<ss>rum": 6249,
      "<ss>rang": 6250,
      "<ss>win": 6251,
      "<ss>ingly": 6252,
      "<ss>rec": 6253,
      "<ss>lywood": 6254,
      "<ss>ched": 6255,
      "<ss>erse": 6256,
      "plate": 6257,
      "upd": 6258,
      "decade": 6259,
      "decades": 6260,
      "12th": 6261,
      "1975": 6262,
      "juan": 6263,
      "deaths": 6264,
      "planning": 6265,
      "russian": 6266,
      "attract": 6267,
      "chemical": 6268,
      "experienced": 6269,
      "municip": 6270,
      "roughly": 6271,
      "expedition": 6272,
      "chorus": 6273,
      "72": 6274,
      "85": 6275,
      "bart": 6276,
      "gil": 6277,
      "gross": 6278,
      "kits": 6279,
      "nich": 6280,
      "<ss>iences": 6281,
      "<ss>de": 6282,
      "<ss>mans": 6283,
      "<ss>asure": 6284,
      "<ss>amin": 6285,
      "stal": 6286,
      "<ss>ola": 6287,
      "<ss>ayer": 6288,
      "<ss>ava": 6289,
      "firm": 6290,
      "worth": 6291,
      "allied": 6292,
      "<ss>oked": 6293,
      "evita": 6294,
      "interact": 6295,
      "engaged": 6296,
      "pope": 6297,
      "terror": 6298,
      "1965": 6299,
      "1974": 6300,
      "didn": 6301,
      "greg": 6302,
      "avenue": 6303,
      "evening": 6304,
      "<ss>ographic": 6305,
      "organiz": 6306,
      "authors": 6307,
      "patrol": 6308,
      "<ss>bridge": 6309,
      "summ": 6310,
      "massive": 6311,
      "transportation": 6312,
      "eyes": 6313,
      "girls": 6314,
      "occupied": 6315,
      "occasionally": 6316,
      "81": 6317,
      "94": 6318,
      "hin": 6319,
      "loy": 6320,
      "merc": 6321,
      "sector": 6322,
      "ye": 6323,
      "<ss>oir": 6324,
      "<ss>uan": 6325,
      "<ss>uate": 6326,
      "<ss>set": 6327,
      "<ss>pass": 6328,
      "<ss>erted": 6329,
      "<ss>ini": 6330,
      "<ss>ompl": 6331,
      "<ss>adh": 6332,
      "<ss>ading": 6333,
      "<ss>ider": 6334,
      "isol": 6335,
      "isab": 6336,
      "<ss>utz": 6337,
      "<ss>ersey": 6338,
      "<ss>istan": 6339,
      "recre": 6340,
      "adap": 6341,
      "bron": 6342,
      "quite": 6343,
      "<ss>anny": 6344,
      "churches": 6345,
      "editor": 6346,
      "passeng": 6347,
      "additionally": 6348,
      "laws": 6349,
      "<ss>shire": 6350,
      "speaking": 6351,
      "successfully": 6352,
      "holy": 6353,
      "violence": 6354,
      "dollar": 6355,
      "platform": 6356,
      "purchased": 6357,
      "disappear": 6358,
      "khanh": 6359,
      "71": 6360,
      "jurch": 6361,
      "rome": 6362,
      "rivers": 6363,
      "wick": 6364,
      "wides": 6365,
      "<ss>ule": 6366,
      "<ss>sw": 6367,
      "<ss>inn": 6368,
      "<ss>ela": 6369,
      "<ss>thm": 6370,
      "<ss>anda": 6371,
      "abb": 6372,
      "marsh": 6373,
      "brid": 6374,
      "formula": 6375,
      "liu": 6376,
      "brook": 6377,
      "simon": 6378,
      "164": 6379,
      "declined": 6380,
      "jamal": 6381,
      "wedding": 6382,
      "bath": 6383,
      "drew": 6384,
      "hang": 6385,
      "map": 6386,
      "rene": 6387,
      "sail": 6388,
      "<ss>hire": 6389,
      "<ss>yson": 6390,
      "<ss>itan": 6391,
      "<ss>lyss": 6392,
      "arsen": 6393,
      "spons": 6394,
      "marl": 6395,
      "accompl": 6396,
      "remn": 6397,
      "assass": 6398,
      "elimin": 6399,
      "subm": 6400,
      "longest": 6401,
      "160": 6402,
      "1946": 6403,
      "owners": 6404,
      "protagon": 6405,
      "corpor": 6406,
      "arrival": 6407,
      "details": 6408,
      "stret": 6409,
      "experiment": 6410,
      "politics": 6411,
      "brian": 6412,
      "begun": 6413,
      "pupp": 6414,
      "dublin": 6415,
      "learned": 6416,
      "tennyson": 6417,
      "briefly": 6418,
      "purpose": 6419,
      "category": 6420,
      "permanent": 6421,
      "paintings": 6422,
      "macleod": 6423,
      "cul": 6424,
      "cos": 6425,
      "jes": 6426,
      "sar": 6427,
      "sid": 6428,
      "tu": 6429,
      "zone": 6430,
      "<ss>eed": 6431,
      "<ss>eals": 6432,
      "<ss>han": 6433,
      "<ss>town": 6434,
      "<ss>arian": 6435,
      "<ss>ules": 6436,
      "<ss>ocated": 6437,
      "grav": 6438,
      "marine": 6439,
      "applied": 6440,
      "impr": 6441,
      "interior": 6442,
      "accident": 6443,
      "moves": 6444,
      "guide": 6445,
      "simone": 6446,
      "adding": 6447,
      "performing": 6448,
      "crime": 6449,
      "1950": 6450,
      "possibility": 6451,
      "basin": 6452,
      "billion": 6453,
      "technical": 6454,
      "settlers": 6455,
      "braz": 6456,
      "literary": 6457,
      "exception": 6458,
      "thirty": 6459,
      "hydro": 6460,
      "instrument": 6461,
      "ble": 6462,
      "hired": 6463,
      "kat": 6464,
      "lit": 6465,
      "lic": 6466,
      "<ss>rence": 6467,
      "<ss>atus": 6468,
      "<ss>amy": 6469,
      "albert": 6470,
      "<ss>utation": 6471,
      "seat": 6472,
      "<ss>unk": 6473,
      "unsu": 6474,
      "<ss>iance": 6475,
      "contrib": 6476,
      "roof": 6477,
      "<ss>ffman": 6478,
      "acres": 6479,
      "door": 6480,
      "guy": 6481,
      "phill": 6482,
      "calls": 6483,
      "developing": 6484,
      "1966": 6485,
      "1952": 6486,
      "justice": 6487,
      "corresp": 6488,
      "deter": 6489,
      "1936": 6490,
      "1919": 6491,
      "fields": 6492,
      "freed": 6493,
      "discovery": 6494,
      "happy": 6495,
      "participated": 6496,
      "<ss>worth": 6497,
      "symbol": 6498,
      "enjoyed": 6499,
      "routes": 6500,
      "responded": 6501,
      "accompanied": 6502,
      "earthquake": 6503,
      "correspond": 6504,
      "fuel": 6505,
      "hip": 6506,
      "hung": 6507,
      "ulyss": 6508,
      "<ss>rons": 6509,
      "<ss>bled": 6510,
      "ther": 6511,
      "<ss>eds": 6512,
      "<ss>isers": 6513,
      "ones": 6514,
      "heard": 6515,
      "<ss>oses": 6516,
      "uns": 6517,
      "<ss>okes": 6518,
      "decre": 6519,
      "charter": 6520,
      "brothers": 6521,
      "populations": 6522,
      "belt": 6523,
      "oldest": 6524,
      "110": 6525,
      "177": 6526,
      "stew": 6527,
      "heads": 6528,
      "characteristics": 6529,
      "clubs": 6530,
      "moon": 6531,
      "initi": 6532,
      "speech": 6533,
      "competitions": 6534,
      "combination": 6535,
      "engineering": 6536,
      "existing": 6537,
      "existence": 6538,
      "painting": 6539,
      "anthony": 6540,
      "ulysses": 6541,
      "77": 6542,
      "dru": 6543,
      "dock": 6544,
      "fount": 6545,
      "ni": 6546,
      "vision": 6547,
      "<ss>pread": 6548,
      "<ss>ym": 6549,
      "<ss>ications": 6550,
      "<ss>aked": 6551,
      "lear": 6552,
      "<ss>pty": 6553,
      "<ss>ipl": 6554,
      "reserve": 6555,
      "marc": 6556,
      "goes": 6557,
      "carib": 6558,
      "joy": 6559,
      "consists": 6560,
      "<ss>phy": 6561,
      "subt": 6562,
      "submar": 6563,
      "1973": 6564,
      "magic": 6565,
      "grey": 6566,
      "1930": 6567,
      "lasted": 6568,
      "reviewers": 6569,
      "typical": 6570,
      "younger": 6571,
      "coastal": 6572,
      "dougl": 6573,
      "biography": 6574,
      "cardinal": 6575,
      "funding": 6576,
      "dominated": 6577,
      "neck": 6578,
      "benef": 6579,
      "thousands": 6580,
      "opportunity": 6581,
      "turkish": 6582,
      "widespread": 6583,
      "59": 6584,
      "aim": 6585,
      "caught": 6586,
      "fit": 6587,
      "gri": 6588,
      "jazz": 6589,
      "kenn": 6590,
      "mine": 6591,
      "pav": 6592,
      "rum": 6593,
      "task": 6594,
      "<ss>uct": 6595,
      "<ss>ni": 6596,
      "<ss>zer": 6597,
      "<ss>com": 6598,
      "<ss>come": 6599,
      "<ss>water": 6600,
      "<ss>aser": 6601,
      "<ss>iday": 6602,
      "<ss>usal": 6603,
      "chance": 6604,
      "supre": 6605,
      "<ss>iston": 6606,
      "tra": 6607,
      "resident": 6608,
      "usa": 6609,
      "capable": 6610,
      "receiving": 6611,
      "depict": 6612,
      "1967": 6613,
      "expans": 6614,
      "anything": 6615,
      "missing": 6616,
      "greatly": 6617,
      "classic": 6618,
      "turning": 6619,
      "reality": 6620,
      "everything": 6621,
      "mountains": 6622,
      "georg": 6623,
      "affair": 6624,
      "technique": 6625,
      "holding": 6626,
      "closely": 6627,
      "cruiser": 6628,
      "stopped": 6629,
      "substant": 6630,
      "<ss>works": 6631,
      "hornung": 6632,
      "vehicles": 6633,
      "weakened": 6634,
      "ceremony": 6635,
      "unsuccess": 6636,
      "66": 6637,
      "98": 6638,
      "cens": 6639,
      "jersey": 6640,
      "ori": 6641,
      "tas": 6642,
      "tells": 6643,
      "witch": 6644,
      "<ss>aire": 6645,
      "<ss>born": 6646,
      "<ss>itors": 6647,
      "<ss>ici": 6648,
      "<ss>iles": 6649,
      "<ss>agre": 6650,
      "allah": 6651,
      "aml": 6652,
      "descend": 6653,
      "evac": 6654,
      "flash": 6655,
      "decline": 6656,
      "noisy": 6657,
      "monarch": 6658,
      "acid": 6659,
      "175": 6660,
      "provides": 6661,
      "headed": 6662,
      "serves": 6663,
      "myc": 6664,
      "1930s": 6665,
      "1914": 6666,
      "courts": 6667,
      "legacy": 6668,
      "storyline": 6669,
      "similarly": 6670,
      "colonial": 6671,
      "railroad": 6672,
      "inspir": 6673,
      "derived": 6674,
      "creator": 6675,
      "rules": 6676,
      "banks": 6677,
      "assistant": 6678,
      "restaurant": 6679,
      "iguanodon": 6680,
      "astronom": 6681,
      "caribbe": 6682,
      "6th": 6683,
      "bought": 6684,
      "kel": 6685,
      "pup": 6686,
      "rio": 6687,
      "sed": 6688,
      "sort": 6689,
      "<ss>laim": 6690,
      "<ss>body": 6691,
      "<ss>cle": 6692,
      "inner": 6693,
      "<ss>entially": 6694,
      "<ss>pton": 6695,
      "grade": 6696,
      "<ss>athers": 6697,
      "resour": 6698,
      "<ss>ifications": 6699,
      "supposed": 6700,
      "locations": 6701,
      "invited": 6702,
      "downlo": 6703,
      "classified": 6704,
      "viewed": 6705,
      "survived": 6706,
      "palace": 6707,
      "<ss>araj": 6708,
      "reading": 6709,
      "falls": 6710,
      "hills": 6711,
      "innings": 6712,
      "flights": 6713,
      "rolling": 6714,
      "filled": 6715,
      "haiti": 6716,
      "battleship": 6717,
      "dissipated": 6718,
      "chelsea": 6719,
      "orchest": 6720,
      "douglas": 6721,
      "caribbean": 6722,
      "cot": 6723,
      "dim": 6724,
      "jay": 6725,
      "rural": 6726,
      "sang": 6727,
      "table": 6728,
      "<ss>vens": 6729,
      "<ss>har": 6730,
      "<ss>ram": 6731,
      "<ss>rest": 6732,
      "<ss>zac": 6733,
      "asia": 6734,
      "<ss>cher": 6735,
      "<ss>estone": 6736,
      "shared": 6737,
      "<ss>agn": 6738,
      "<ss>abil": 6739,
      "exact": 6740,
      "trying": 6741,
      "worship": 6742,
      "perry": 6743,
      "resist": 6744,
      "evil": 6745,
      "maeda": 6746,
      "receive": 6747,
      "novels": 6748,
      "1945": 6749,
      "1971": 6750,
      "describing": 6751,
      "ways": 6752,
      "destiny": 6753,
      "georgian": 6754,
      "electronic": 6755,
      "regional": 6756,
      "colonel": 6757,
      "rebu": 6758,
      "watched": 6759,
      "establishment": 6760,
      "puzz": 6761,
      "alien": 6762,
      "constantine": 6763,
      "ratings": 6764,
      "acquired": 6765,
      "opinion": 6766,
      "custom": 6767,
      "repeated": 6768,
      "eagle": 6769,
      "hibari": 6770,
      "atmosphere": 6771,
      "dan": 6772,
      "eighth": 6773,
      "fine": 6774,
      "gate": 6775,
      "jones": 6776,
      "lad": 6777,
      "mtv": 6778,
      "pack": 6779,
      "qedar": 6780,
      "von": 6781,
      "<ss>ruli": 6782,
      "<ss>ji": 6783,
      "<ss>acity": 6784,
      "<ss>eme": 6785,
      "anton": 6786,
      "<ss>ighter": 6787,
      "<ss>aka": 6788,
      "exerc": 6789,
      "spacing": 6790,
      "boys": 6791,
      "amate": 6792,
      "intention": 6793,
      "whereas": 6794,
      "phoen": 6795,
      "1982": 6796,
      "crimin": 6797,
      "176": 6798,
      "steel": 6799,
      "evergl": 6800,
      "moder": 6801,
      "entry": 6802,
      "demand": 6803,
      "romani": 6804,
      "penalty": 6805,
      "focused": 6806,
      "venus": 6807,
      "teaching": 6808,
      "mortal": 6809,
      "opposition": 6810,
      "boliv": 6811,
      "converted": 6812,
      "library": 6813,
      "everglades": 6814,
      "dod": 6815,
      "dating": 6816,
      "ech": 6817,
      "lamb": 6818,
      "mul": 6819,
      "wy": 6820,
      "<ss>bur": 6821,
      "<ss>ona": 6822,
      "<ss>ador": 6823,
      "franch": 6824,
      "<ss>iful": 6825,
      "plun": 6826,
      "enl": 6827,
      "recru": 6828,
      "pregn": 6829,
      "knew": 6830,
      "<ss>issance": 6831,
      "regime": 6832,
      "infr": 6833,
      "1980": 6834,
      "depicted": 6835,
      "lover": 6836,
      "1976": 6837,
      "providing": 6838,
      "1956": 6839,
      "protect": 6840,
      "1916": 6841,
      "1913": 6842,
      "250": 6843,
      "explos": 6844,
      "entering": 6845,
      "moz": 6846,
      "engineers": 6847,
      "poems": 6848,
      "uncle": 6849,
      "assistance": 6850,
      "renamed": 6851,
      "arranged": 6852,
      "oslo": 6853,
      "succeeded": 6854,
      "rescue": 6855,
      "mushroom": 6856,
      "brazil": 6857,
      "69": 6858,
      "87": 6859,
      "8th": 6860,
      "lenn": 6861,
      "tied": 6862,
      "<ss>rant": 6863,
      "<ss>ilton": 6864,
      "conqu": 6865,
      "orn": 6866,
      "<ss>ardo": 6867,
      "lee": 6868,
      "<ss>elli": 6869,
      "<ss>ights": 6870,
      "agent": 6871,
      "partners": 6872,
      "attached": 6873,
      "defined": 6874,
      "strateg": 6875,
      "supplies": 6876,
      "10th": 6877,
      "112": 6878,
      "1943": 6879,
      "expos": 6880,
      "camps": 6881,
      "township": 6882,
      "communist": 6883,
      "<ss>book": 6884,
      "prize": 6885,
      "<ss>ipping": 6886,
      "certified": 6887,
      "holds": 6888,
      "tomb": 6889,
      "separated": 6890,
      "immig": 6891,
      "credited": 6892,
      "credits": 6893,
      "methods": 6894,
      "consisting": 6895,
      "romantic": 6896,
      "ghost": 6897,
      "article": 6898,
      "delivered": 6899,
      "citiz": 6900,
      "basketball": 6901,
      "siege": 6902,
      "fel": 6903,
      "hits": 6904,
      "patt": 6905,
      "sad": 6906,
      "<ss>ns": 6907,
      "<ss>bles": 6908,
      "<ss>eman": 6909,
      "<ss>uls": 6910,
      "hear": 6911,
      "<ss>uma": 6912,
      "<ss>rier": 6913,
      "print": 6914,
      "spin": 6915,
      "<ss>ube": 6916,
      "desire": 6917,
      "outstanding": 6918,
      "pole": 6919,
      "secure": 6920,
      "<ss>ropri": 6921,
      "depos": 6922,
      "stevens": 6923,
      "1963": 6924,
      "commanded": 6925,
      "morrison": 6926,
      "professor": 6927,
      "<ss>iece": 6928,
      "civilian": 6929,
      "colonies": 6930,
      "rangers": 6931,
      "athletic": 6932,
      "examples": 6933,
      "controversy": 6934,
      "dinosaur": 6935,
      "rarely": 6936,
      "sudden": 6937,
      "hindu": 6938,
      "adapted": 6939,
      "nas": 6940,
      "util": 6941,
      "voy": 6942,
      "<ss>kins": 6943,
      "<ss>burg": 6944,
      "<ss>xe": 6945,
      "<ss>je": 6946,
      "<ss>aling": 6947,
      "<ss>rot": 6948,
      "<ss>emia": 6949,
      "chess": 6950,
      "plain": 6951,
      "arthur": 6952,
      "unl": 6953,
      "unn": 6954,
      "leaves": 6955,
      "prey": 6956,
      "<ss>mann": 6957,
      "remar": 6958,
      "<ss>issipp": 6959,
      "eliz": 6960,
      "soil": 6961,
      "<ss>attle": 6962,
      "transform": 6963,
      "mississipp": 6964,
      "reputation": 6965,
      "protected": 6966,
      "classes": 6967,
      "australians": 6968,
      "correct": 6969,
      "<ss>oba": 6970,
      "window": 6971,
      "walter": 6972,
      "references": 6973,
      "labour": 6974,
      "circum": 6975,
      "hollywood": 6976,
      "archaeology": 6977,
      "indicate": 6978,
      "montana": 6979,
      "accounts": 6980,
      "<ss>aska": 6981,
      "remainder": 6982,
      "bradford": 6983,
      "shooting": 6984,
      "utc": 6985,
      "finishing": 6986,
      "portrayed": 6987,
      "alexander": 6988,
      "columbia": 6989,
      "truj": 6990,
      "ritual": 6991,
      "sunday": 6992,
      "daniel": 6993,
      "fountain": 6994,
      "ecc": 6995,
      "lat": 6996,
      "tests": 6997,
      "vent": 6998,
      "<ss>ture": 6999,
      "online": 7000,
      "conte": 7001,
      "freder": 7002,
      "anzac": 7003,
      "worst": 7004,
      "soul": 7005,
      "warm": 7006,
      "undert": 7007,
      "divine": 7008,
      "16th": 7009,
      "11th": 7010,
      "1978": 7011,
      "missions": 7012,
      "1953": 7013,
      "turns": 7014,
      "occurs": 7015,
      "introduction": 7016,
      "facing": 7017,
      "producing": 7018,
      "memory": 7019,
      "denied": 7020,
      "appoint": 7021,
      "maryland": 7022,
      "feelings": 7023,
      "specifically": 7024,
      "hearts": 7025,
      "threatened": 7026,
      "croatian": 7027,
      "chairman": 7028,
      "agricultural": 7029,
      "trujillo": 7030,
      "bos": 7031,
      "rand": 7032,
      "<ss>no": 7033,
      "<ss>ti": 7034,
      "<ss>ora": 7035,
      "<ss>enz": 7036,
      "<ss>entions": 7037,
      "<ss>uri": 7038,
      "alan": 7039,
      "<ss>agues": 7040,
      "proh": 7041,
      "exit": 7042,
      "noting": 7043,
      "roxas": 7044,
      "offense": 7045,
      "interested": 7046,
      "indig": 7047,
      "acts": 7048,
      "<ss>ocked": 7049,
      "strand": 7050,
      "studied": 7051,
      "divisions": 7052,
      "appearing": 7053,
      "leads": 7054,
      "stef": 7055,
      "passage": 7056,
      "successor": 7057,
      "sword": 7058,
      "bush": 7059,
      "communities": 7060,
      "views": 7061,
      "replace": 7062,
      "statement": 7063,
      "connection": 7064,
      "wooden": 7065,
      "homer": 7066,
      "getting": 7067,
      "scientific": 7068,
      "recognition": 7069,
      "samuel": 7070,
      "feeling": 7071,
      "substit": 7072,
      "favorite": 7073,
      "masters": 7074,
      "alternative": 7075,
      "charlie": 7076,
      "mississippi": 7077,
      "7th": 7078,
      "91": 7079,
      "eu": 7080,
      "nbc": 7081,
      "<ss>ients": 7082,
      "<ss>gie": 7083,
      "<ss>oz": 7084,
      "<ss>hed": 7085,
      "<ss>mel": 7086,
      "<ss>rations": 7087,
      "<ss>cy": 7088,
      "nether": 7089,
      "<ss>pping": 7090,
      "brand": 7091,
      "warri": 7092,
      "howard": 7093,
      "maintain": 7094,
      "<ss>ructure": 7095,
      "1915": 7096,
      "reviewer": 7097,
      "basic": 7098,
      "seeing": 7099,
      "activision": 7100,
      "predec": 7101,
      "wrong": 7102,
      "duke": 7103,
      "lords": 7104,
      "dollars": 7105,
      "dynam": 7106,
      "gallery": 7107,
      "principal": 7108,
      "picture": 7109,
      "rifles": 7110,
      "message": 7111,
      "global": 7112,
      "<ss>break": 7113,
      "dismissed": 7114,
      "arsenal": 7115,
      "supreme": 7116,
      "plunket": 7117,
      "79": 7118,
      "gam": 7119,
      "<ss>sch": 7120,
      "<ss>taining": 7121,
      "<ss>30": 7122,
      "<ss>orters": 7123,
      "<ss>oul": 7124,
      "<ss>elve": 7125,
      "<ss>str": 7126,
      "<ss>acent": 7127,
      "<ss>ersed": 7128,
      "plants": 7129,
      "twelve": 7130,
      "<ss>onder": 7131,
      "attributed": 7132,
      "charges": 7133,
      "knots": 7134,
      "<ss>aws": 7135,
      "retire": 7136,
      "capacity": 7137,
      "122": 7138,
      "<ss>ront": 7139,
      "instruct": 7140,
      "continuing": 7141,
      "enterprise": 7142,
      "calvert": 7143,
      "opponents": 7144,
      "changing": 7145,
      "involvement": 7146,
      "veget": 7147,
      "tribes": 7148,
      "drawing": 7149,
      "academic": 7150,
      "hugh": 7151,
      "discussed": 7152,
      "ninth": 7153,
      "considerable": 7154,
      "extrem": 7155,
      "specimens": 7156,
      "isabella": 7157,
      "74": 7158,
      "cu": 7159,
      "dna": 7160,
      "danny": 7161,
      "fab": 7162,
      "hud": 7163,
      "session": 7164,
      "saraj": 7165,
      "tie": 7166,
      "taught": 7167,
      "vary": 7168,
      "yank": 7169,
      "<ss>eenth": 7170,
      "<ss>iar": 7171,
      "theater": 7172,
      "<ss>orer": 7173,
      "inland": 7174,
      "<ss>itage": 7175,
      "<ss>rel": 7176,
      "sty": 7177,
      "forests": 7178,
      "<ss>oting": 7179,
      "<ss>osis": 7180,
      "shut": 7181,
      "<ss>aga": 7182,
      "<ss>ctions": 7183,
      "exchange": 7184,
      "<ss>arts": 7185,
      "leuk": 7186,
      "marks": 7187,
      "carbon": 7188,
      "wealth": 7189,
      "offers": 7190,
      "<ss>kson": 7191,
      "someone": 7192,
      "releg": 7193,
      "1948": 7194,
      "collect": 7195,
      "1917": 7196,
      "<ss>ews": 7197,
      "standards": 7198,
      "settle": 7199,
      "difficulty": 7200,
      "ruled": 7201,
      "towers": 7202,
      "scholar": 7203,
      "sevent": 7204,
      "photograph": 7205,
      "<ss>evo": 7206,
      "challenge": 7207,
      "adventure": 7208,
      "dangerous": 7209,
      "stephen": 7210,
      "kitsune": 7211,
      "sarajevo": 7212,
      "88": 7213,
      "99": 7214,
      "cory": 7215,
      "faces": 7216,
      "jif": 7217,
      "<ss>eu": 7218,
      "<ss>6th": 7219,
      "<ss>fri": 7220,
      "<ss>elin": 7221,
      "<ss>idden": 7222,
      "alg": 7223,
      "shore": 7224,
      "spr": 7225,
      "<ss>tegr": 7226,
      "manner": 7227,
      "decor": 7228,
      "subs": 7229,
      "signing": 7230,
      "discip": 7231,
      "1979": 7232,
      "campb": 7233,
      "1951": 7234,
      "demol": 7235,
      "superior": 7236,
      "rocky": 7237,
      "talk": 7238,
      "teacher": 7239,
      "autom": 7240,
      "absor": 7241,
      "guardian": 7242,
      "victoria": 7243,
      "split": 7244,
      "emotional": 7245,
      "bolivar": 7246,
      "frederick": 7247,
      "yankovic": 7248,
      "ah": 7249,
      "dag": 7250,
      "mam": 7251,
      "mode": 7252,
      "nap": 7253,
      "page": 7254,
      "races": 7255,
      "si": 7256,
      "sell": 7257,
      "tig": 7258,
      "wim": 7259,
      "yan": 7260,
      "<ss>eper": 7261,
      "<ss>err": 7262,
      "<ss>esc": 7263,
      "<ss>itled": 7264,
      "<ss>aments": 7265,
      "alph": 7266,
      "<ss>imet": 7267,
      "shop": 7268,
      "<ss>avia": 7269,
      "proceed": 7270,
      "<ss>abeth": 7271,
      "<ss>berts": 7272,
      "heritage": 7273,
      "cloud": 7274,
      "<ss>anger": 7275,
      "<ss>ultane": 7276,
      "joe": 7277,
      "<ss>iously": 7278,
      "consum": 7279,
      "<ss>graded": 7280,
      "<ss>ugu": 7281,
      "simultane": 7282,
      "121": 7283,
      "landed": 7284,
      "1961": 7285,
      "breaking": 7286,
      "1954": 7287,
      "archb": 7288,
      "brigades": 7289,
      "replacement": 7290,
      "historians": 7291,
      "nighting": 7292,
      "crossing": 7293,
      "relationships": 7294,
      "observations": 7295,
      "ancest": 7296,
      "nomination": 7297,
      "<ss>know": 7298,
      "leadership": 7299,
      "somali": 7300,
      "candidate": 7301,
      "clarkson": 7302,
      "parallel": 7303,
      "chamber": 7304,
      "mozamb": 7305,
      "jifna": 7306,
      "fro": 7307,
      "gle": 7308,
      "lap": 7309,
      "santa": 7310,
      "tank": 7311,
      "<ss>nell": 7312,
      "<ss>dal": 7313,
      "<ss>wich": 7314,
      "<ss>orous": 7315,
      "<ss>isf": 7316,
      "<ss>eline": 7317,
      "<ss>ivals": 7318,
      "<ss>aya": 7319,
      "<ss>ceived": 7320,
      "<ss>osa": 7321,
      "sher": 7322,
      "<ss>istol": 7323,
      "<ss>illing": 7324,
      "cloth": 7325,
      "<ss>raf": 7326,
      "roberts": 7327,
      "marines": 7328,
      "agency": 7329,
      "parties": 7330,
      "partial": 7331,
      "secured": 7332,
      "blocks": 7333,
      "teeth": 7334,
      "paras": 7335,
      "accur": 7336,
      "simps": 7337,
      "estate": 7338,
      "<ss>ropol": 7339,
      "distributed": 7340,
      "classical": 7341,
      "1937": 7342,
      "legs": 7343,
      "believes": 7344,
      "walk": 7345,
      "destroyers": 7346,
      "brien": 7347,
      "rooms": 7348,
      "wilde": 7349,
      "jerusal": 7350,
      "bringing": 7351,
      "adults": 7352,
      "skye": 7353,
      "bono": 7354,
      "documentary": 7355,
      "picked": 7356,
      "intersection": 7357,
      "behavi": 7358,
      "recommended": 7359,
      "<ss>ranean": 7360,
      "francisco": 7361,
      "fungus": 7362,
      "organizations": 7363,
      "amateur": 7364,
      "extremely": 7365,
      "nightingale": 7366,
      "simpsons": 7367,
      "jerusalem": 7368,
      "bure": 7369,
      "diet": 7370,
      "gone": 7371,
      "gather": 7372,
      "ml": 7373,
      "pir": 7374,
      "sections": 7375,
      "wic": 7376,
      "<ss>eor": 7377,
      "<ss>iable": 7378,
      "<ss>gas": 7379,
      "<ss>hi": 7380,
      "<ss>asions": 7381,
      "<ss>rected": 7382,
      "<ss>eland": 7383,
      "<ss>umps": 7384,
      "<ss>avada": 7385,
      "clay": 7386,
      "adam": 7387,
      "adams": 7388,
      "carter": 7389,
      "genre": 7390,
      "showing": 7391,
      "annivers": 7392,
      "missed": 7393,
      "1955": 7394,
      "godd": 7395,
      "listen": 7396,
      "streets": 7397,
      "<ss>iveness": 7398,
      "windows": 7399,
      "<ss>ivalent": 7400,
      "surviving": 7401,
      "nevertheless": 7402,
      "hamilton": 7403,
      "territories": 7404,
      "languages": 7405,
      "multi": 7406,
      "banai": 7407,
      "immediate": 7408,
      "surrounded": 7409,
      "olympics": 7410,
      "concerns": 7411,
      "rifle": 7412,
      "diameter": 7413,
      "extreme": 7414,
      "tunnel": 7415,
      "argentina": 7416,
      "municipal": 7417,
      "isolated": 7418,
      "learning": 7419,
      "expansion": 7420,
      "3d": 7421,
      "82": 7422,
      "89": 7423,
      "dipl": 7424,
      "gor": 7425,
      "hoc": 7426,
      "lanc": 7427,
      "option": 7428,
      "pale": 7429,
      "sons": 7430,
      "tick": 7431,
      "vac": 7432,
      "wants": 7433,
      "<ss>ois": 7434,
      "<ss>nic": 7435,
      "<ss>ping": 7436,
      "<ss>inals": 7437,
      "<ss>ester": 7438,
      "<ss>eness": 7439,
      "<ss>rets": 7440,
      "<ss>adow": 7441,
      "1900": 7442,
      "existed": 7443,
      "prer": 7444,
      "<ss>ears": 7445,
      "<ss>oven": 7446,
      "firing": 7447,
      "mans": 7448,
      "web": 7449,
      "flat": 7450,
      "<ss>wealth": 7451,
      "retreat": 7452,
      "armor": 7453,
      "cris": 7454,
      "gerard": 7455,
      "1958": 7456,
      "protests": 7457,
      "tries": 7458,
      "detail": 7459,
      "detailed": 7460,
      "commonwealth": 7461,
      "heaven": 7462,
      "mole": 7463,
      "ceratops": 7464,
      "ruler": 7465,
      "approached": 7466,
      "inhabit": 7467,
      "institutions": 7468,
      "arrangement": 7469,
      "emerged": 7470,
      "encouraged": 7471,
      "admiral": 7472,
      "compounds": 7473,
      "ryan": 7474,
      "reunion": 7475,
      "portrait": 7476,
      "inspiration": 7477,
      "anniversary": 7478,
      "fern": 7479,
      "kit": 7480,
      "las": 7481,
      "na": 7482,
      "pip": 7483,
      "sight": 7484,
      "<ss>ooth": 7485,
      "<ss>itals": 7486,
      "<ss>inger": 7487,
      "<ss>rell": 7488,
      "<ss>elet": 7489,
      "<ss>iling": 7490,
      "stem": 7491,
      "asc": 7492,
      "bear": 7493,
      "mega": 7494,
      "cob": 7495,
      "<ss>ensis": 7496,
      "flo": 7497,
      "songwrit": 7498,
      "pointed": 7499,
      "counties": 7500,
      "1949": 7501,
      "1977": 7502,
      "designation": 7503,
      "implement": 7504,
      "corp": 7505,
      "triple": 7506,
      "videos": 7507,
      "internal": 7508,
      "attempting": 7509,
      "treated": 7510,
      "crossed": 7511,
      "equal": 7512,
      "suffering": 7513,
      "regularly": 7514,
      "admitted": 7515,
      "sequel": 7516,
      "norman": 7517,
      "institution": 7518,
      "choir": 7519,
      "hoped": 7520,
      "giant": 7521,
      "climate": 7522,
      "apparent": 7523,
      "lbw": 7524,
      "roger": 7525,
      "unusual": 7526,
      "eggs": 7527,
      "renew": 7528,
      "freedom": 7529,
      "lennon": 7530,
      "07": 7531,
      "63": 7532,
      "kid": 7533,
      "lam": 7534,
      "ped": 7535,
      "pion": 7536,
      "sulf": 7537,
      "sessions": 7538,
      "tales": 7539,
      "<ss>ook": 7540,
      "<ss>pret": 7541,
      "<ss>yon": 7542,
      "<ss>arf": 7543,
      "anek": 7544,
      "<ss>using": 7545,
      "<ss>rif": 7546,
      "<ss>unt": 7547,
      "<ss>antly": 7548,
      "<ss>uda": 7549,
      "herge": 7550,
      "relative": 7551,
      "desert": 7552,
      "serial": 7553,
      "aged": 7554,
      "goffman": 7555,
      "fled": 7556,
      "indeed": 7557,
      "assumed": 7558,
      "acknow": 7559,
      "airline": 7560,
      "transition": 7561,
      "musicians": 7562,
      "meteor": 7563,
      "<ss>roll": 7564,
      "owner": 7565,
      "medium": 7566,
      "13th": 7567,
      "imposs": 7568,
      "verse": 7569,
      "harv": 7570,
      "visible": 7571,
      "<ss>inking": 7572,
      "approved": 7573,
      "convoy": 7574,
      "possession": 7575,
      "<ss>aurus": 7576,
      "footage": 7577,
      "strongly": 7578,
      "statistics": 7579,
      "<ss>ombat": 7580,
      "rhodes": 7581,
      "identity": 7582,
      "improve": 7583,
      "kilmer": 7584,
      "duties": 7585,
      "hundreds": 7586,
      "janeiro": 7587,
      "wearing": 7588,
      "reconstruction": 7589,
      "crusad": 7590,
      "saprang": 7591,
      "caval": 7592,
      "protagonist": 7593,
      "initiative": 7594,
      "resources": 7595,
      "franchise": 7596,
      "prohib": 7597,
      "06": 7598,
      "93": 7599,
      "bce": 7600,
      "cater": 7601,
      "craft": 7602,
      "hi": 7603,
      "kin": 7604,
      "pure": 7605,
      "wings": 7606,
      "<ss>pe": 7607,
      "<ss>rates": 7608,
      "<ss>tw": 7609,
      "<ss>wen": 7610,
      "ina": 7611,
      "<ss>icts": 7612,
      "<ss>uses": 7613,
      "heat": 7614,
      "shif": 7615,
      "shakes": 7616,
      "<ss>odies": 7617,
      "proport": 7618,
      "dean": 7619,
      "<ss>ables": 7620,
      "<ss>eare": 7621,
      "reconna": 7622,
      "ages": 7623,
      "partly": 7624,
      "meets": 7625,
      "preced": 7626,
      "<ss>prising": 7627,
      "intercept": 7628,
      "accused": 7629,
      "embar": 7630,
      "winner": 7631,
      "starling": 7632,
      "armour": 7633,
      "1983": 7634,
      "medal": 7635,
      "collabor": 7636,
      "trials": 7637,
      "easily": 7638,
      "1920": 7639,
      "lawton": 7640,
      "debate": 7641,
      "cycle": 7642,
      "<ss>whel": 7643,
      "<ss>encies": 7644,
      "looked": 7645,
      "indicated": 7646,
      "practices": 7647,
      "camera": 7648,
      "richardson": 7649,
      "<ss>ometric": 7650,
      "hunting": 7651,
      "jean": 7652,
      "completion": 7653,
      "concerned": 7654,
      "pleasure": 7655,
      "attracted": 7656,
      "owen": 7657,
      "watershed": 7658,
      "cabin": 7659,
      "specimen": 7660,
      "terminus": 7661,
      "doubt": 7662,
      "fixed": 7663,
      "adjacent": 7664,
      "dramatic": 7665,
      "concerts": 7666,
      "jesus": 7667,
      "<ss>bledon": 7668,
      "georgia": 7669,
      "circumst": 7670,
      "wimbledon": 7671,
      "behaviour": 7672,
      "prerog": 7673,
      "reconnaissance": 7674,
      "ax": 7675,
      "boss": 7676,
      "hat": 7677,
      "jag": 7678,
      "ky": 7679,
      "mant": 7680,
      "pink": 7681,
      "rated": 7682,
      "ward": 7683,
      "<ss>how": 7684,
      "<ss>zen": 7685,
      "<ss>organ": 7686,
      "<ss>imate": 7687,
      "shots": 7688,
      "<ss>umin": 7689,
      "prol": 7690,
      "<ss>allow": 7691,
      "<ss>ishing": 7692,
      "spaces": 7693,
      "<ss>oking": 7694,
      "aggress": 7695,
      "pool": 7696,
      "parks": 7697,
      "recordings": 7698,
      "understand": 7699,
      "ministry": 7700,
      "artific": 7701,
      "162": 7702,
      "metall": 7703,
      "<ss>ahl": 7704,
      "persp": 7705,
      "destruction": 7706,
      "patron": 7707,
      "moral": 7708,
      "effectively": 7709,
      "influences": 7710,
      "falling": 7711,
      "verte": 7712,
      "settled": 7713,
      "composer": 7714,
      "queens": 7715,
      "reduce": 7716,
      "cambridge": 7717,
      "traveled": 7718,
      "exhaust": 7719,
      "emerg": 7720,
      "publishing": 7721,
      "purchase": 7722,
      "rhythm": 7723,
      "diamond": 7724,
      "somalia": 7725,
      "doctor": 7726,
      "sculpture": 7727,
      "congreg": 7728,
      "incorporated": 7729,
      "korean": 7730,
      "remnants": 7731,
      "download": 7732,
      "05": 7733,
      "58": 7734,
      "ak": 7735,
      "ace": 7736,
      "bert": 7737,
      "cant": 7738,
      "hob": 7739,
      "kombat": 7740,
      "nom": 7741,
      "sb": 7742,
      "<ss>vis": 7743,
      "<ss>hu": 7744,
      "<ss>yard": 7745,
      "<ss>bie": 7746,
      "<ss>cia": 7747,
      "<ss>itated": 7748,
      "<ss>emet": 7749,
      "aniston": 7750,
      "<ss>opl": 7751,
      "<ss>ifer": 7752,
      "recalled": 7753,
      "grace": 7754,
      "afterwards": 7755,
      "displ": 7756,
      "impl": 7757,
      "overwhel": 7758,
      "parish": 7759,
      "accomm": 7760,
      "somewh": 7761,
      "mayor": 7762,
      "<ss>aware": 7763,
      "driving": 7764,
      "obtained": 7765,
      "operating": 7766,
      "lob": 7767,
      "advis": 7768,
      "attacking": 7769,
      "storms": 7770,
      "aviation": 7771,
      "1910": 7772,
      "restoration": 7773,
      "eleven": 7774,
      "keamy": 7775,
      "solar": 7776,
      "<ss>attered": 7777,
      "victims": 7778,
      "stands": 7779,
      "1909": 7780,
      "merch": 7781,
      "selection": 7782,
      "meetings": 7783,
      "holiday": 7784,
      "pitcher": 7785,
      "funds": 7786,
      "measures": 7787,
      "<ss>going": 7788,
      "garcia": 7789,
      "painted": 7790,
      "seemed": 7791,
      "absol": 7792,
      "essential": 7793,
      "recovered": 7794,
      "controversial": 7795,
      "architecture": 7796,
      "behavior": 7797,
      "bridges": 7798,
      "puppet": 7799,
      "pupils": 7800,
      "context": 7801,
      "accommod": 7802,
      "somewhat": 7803,
      "08": 7804,
      "cave": 7805,
      "cake": 7806,
      "ira": 7807,
      "matt": 7808,
      "oak": 7809,
      "pier": 7810,
      "rag": 7811,
      "tone": 7812,
      "<ss>oom": 7813,
      "<ss>hm": 7814,
      "<ss>arth": 7815,
      "<ss>icate": 7816,
      "<ss>real": 7817,
      "<ss>thosaurus": 7818,
      "<ss>idae": 7819,
      "islam": 7820,
      "fraser": 7821,
      "unp": 7822,
      "spend": 7823,
      "<ss>achus": 7824,
      "abd": 7825,
      "manus": 7826,
      "flower": 7827,
      "interaction": 7828,
      "param": 7829,
      "consc": 7830,
      "preserved": 7831,
      "poland": 7832,
      "generals": 7833,
      "divor": 7834,
      "origins": 7835,
      "<ss>annah": 7836,
      "directors": 7837,
      "johnston": 7838,
      "barr": 7839,
      "germans": 7840,
      "<ss>eera": 7841,
      "1931": 7842,
      "1935": 7843,
      "1912": 7844,
      "convin": 7845,
      "lowest": 7846,
      "representing": 7847,
      "destroyer": 7848,
      "praise": 7849,
      "circulation": 7850,
      "researchers": 7851,
      "rebels": 7852,
      "hosted": 7853,
      "escort": 7854,
      "normally": 7855,
      "panel": 7856,
      "linked": 7857,
      "arabic": 7858,
      "opposite": 7859,
      "throwing": 7860,
      "cancer": 7861,
      "distinguished": 7862,
      "passengers": 7863,
      "elizabeth": 7864,
      "plunketts": 7865,
      "corythosaurus": 7866,
      "goddess": 7867,
      "crisis": 7868,
      "shakesp": 7869,
      "68": 7870,
      "bone": 7871,
      "bapt": 7872,
      "covers": 7873,
      "dc": 7874,
      "fate": 7875,
      "fia": 7876,
      "fold": 7877,
      "gib": 7878,
      "icon": 7879,
      "pad": 7880,
      "sab": 7881,
      "tong": 7882,
      "tailed": 7883,
      "ust": 7884,
      "wine": 7885,
      "<ss>uz": 7886,
      "<ss>rus": 7887,
      "<ss>cement": 7888,
      "thro": 7889,
      "<ss>atures": 7890,
      "<ss>olay": 7891,
      "<ss>ira": 7892,
      "<ss>otic": 7893,
      "answ": 7894,
      "sees": 7895,
      "enth": 7896,
      "recur": 7897,
      "clock": 7898,
      "income": 7899,
      "disaster": 7900,
      "carp": 7901,
      "interpret": 7902,
      "forming": 7903,
      "<ss>ribed": 7904,
      "monuments": 7905,
      "defences": 7906,
      "defended": 7907,
      "willing": 7908,
      "helmet": 7909,
      "expensive": 7910,
      "returns": 7911,
      "<ss>tendo": 7912,
      "1932": 7913,
      "waterfall": 7914,
      "trading": 7915,
      "propag": 7916,
      "crosses": 7917,
      "palmy": 7918,
      "covering": 7919,
      "programme": 7920,
      "equipped": 7921,
      "limit": 7922,
      "audio": 7923,
      "difficulties": 7924,
      "satur": 7925,
      "stayed": 7926,
      "judge": 7927,
      "responsibility": 7928,
      "princess": 7929,
      "nintendo": 7930,
      "junior": 7931,
      "carrying": 7932,
      "mobile": 7933,
      "elsewhere": 7934,
      "vessel": 7935,
      "sisters": 7936,
      "stanley": 7937,
      "marlborough": 7938,
      "infrast": 7939,
      "archbishop": 7940,
      "hockey": 7941,
      "inaug": 7942,
      "prerogative": 7943,
      "artificial": 7944,
      "shakespeare": 7945,
      "az": 7946,
      "bang": 7947,
      "cull": 7948,
      "cemet": 7949,
      "eric": 7950,
      "hay": 7951,
      "ken": 7952,
      "lith": 7953,
      "voted": 7954,
      "wag": 7955,
      "<ss>ugh": 7956,
      "<ss>put": 7957,
      "<ss>burn": 7958,
      "<ss>xts": 7959,
      "<ss>ware": 7960,
      "<ss>onica": 7961,
      "integr": 7962,
      "<ss>icide": 7963,
      "<ss>reh": 7964,
      "<ss>ithic": 7965,
      "alter": 7966,
      "comments": 7967,
      "<ss>ishment": 7968,
      "spur": 7969,
      "fei": 7970,
      "agree": 7971,
      "otherwise": 7972,
      "canter": 7973,
      "<ss>amps": 7974,
      "ell": 7975,
      "elabor": 7976,
      "supporters": 7977,
      "stead": 7978,
      "occasions": 7979,
      "confeder": 7980,
      "geoff": 7981,
      "arrested": 7982,
      "glad": 7983,
      "1911": 7984,
      "universal": 7985,
      "internet": 7986,
      "switch": 7987,
      "promote": 7988,
      "villages": 7989,
      "1921": 7990,
      "1929": 7991,
      "patri": 7992,
      "patrick": 7993,
      "lawrence": 7994,
      "<ss>scop": 7995,
      "defeating": 7996,
      "horiz": 7997,
      "burning": 7998,
      "tribut": 7999,
      "catech": 8000,
      "ambass": 8001,
      "bombard": 8002,
      "thousand": 8003,
      "legislation": 8004,
      "pushed": 8005,
      "environmental": 8006,
      "beautiful": 8007,
      "survivors": 8008,
      "elder": 8009,
      "citizens": 8010,
      "netherlands": 8011,
      "diplom": 8012,
      "fernand": 8013,
      "impossible": 8014,
      "manuscript": 8015,
      "bore": 8016,
      "citing": 8017,
      "dens": 8018,
      "gates": 8019,
      "holl": 8020,
      "nad": 8021,
      "pin": 8022,
      "pig": 8023,
      "rib": 8024,
      "tight": 8025,
      "tale": 8026,
      "<ss>rich": 8027,
      "<ss>rating": 8028,
      "theor": 8029,
      "<ss>eries": 8030,
      "<ss>arm": 8031,
      "<ss>ician": 8032,
      "<ss>acle": 8033,
      "<ss>etime": 8034,
      "<ss>uting": 8035,
      "chron": 8036,
      "<ss>ifies": 8037,
      "<ss>oceratops": 8038,
      "<ss>oster": 8039,
      "abund": 8040,
      "amino": 8041,
      "margin": 8042,
      "charity": 8043,
      "acclaim": 8044,
      "underst": 8045,
      "understanding": 8046,
      "retained": 8047,
      "161": 8048,
      "crush": 8049,
      "1962": 8050,
      "mediter": 8051,
      "1959": 8052,
      "raj": 8053,
      "raff": 8054,
      "raise": 8055,
      "1938": 8056,
      "streak": 8057,
      "periods": 8058,
      "<ss>quez": 8059,
      "equivalent": 8060,
      "involving": 8061,
      "voiced": 8062,
      "atlanta": 8063,
      "tribute": 8064,
      "closer": 8065,
      "observatory": 8066,
      "objects": 8067,
      "intensified": 8068,
      "products": 8069,
      "pitman": 8070,
      "accompany": 8071,
      "disappo": 8072,
      "garden": 8073,
      "<ss>heim": 8074,
      "doctr": 8075,
      "sleep": 8076,
      "vessels": 8077,
      "cryst": 8078,
      "batsman": 8079,
      "<ss>iques": 8080,
      "cambodia": 8081,
      "preferred": 8082,
      "unsuccessful": 8083,
      "resistance": 8084,
      "criminal": 8085,
      "stefani": 8086,
      "cemetery": 8087,
      "67": 8088,
      "86": 8089,
      "cbs": 8090,
      "dor": 8091,
      "gent": 8092,
      "gust": 8093,
      "hou": 8094,
      "nur": 8095,
      "nurs": 8096,
      "rect": 8097,
      "sic": 8098,
      "u2": 8099,
      "va": 8100,
      "wet": 8101,
      "<ss>uv": 8102,
      "<ss>rator": 8103,
      "<ss>fare": 8104,
      "<ss>erry": 8105,
      "stable": 8106,
      "<ss>iform": 8107,
      "<ss>aboration": 8108,
      "notably": 8109,
      "twin": 8110,
      "committed": 8111,
      "appropri": 8112,
      "formal": 8113,
      "reveals": 8114,
      "subspec": 8115,
      "phr": 8116,
      "slide": 8117,
      "helic": 8118,
      "collaps": 8119,
      "collaboration": 8120,
      "raf": 8121,
      "furt": 8122,
      "myst": 8123,
      "latex": 8124,
      "convection": 8125,
      "temples": 8126,
      "1920s": 8127,
      "causes": 8128,
      "criticised": 8129,
      "needs": 8130,
      "fallen": 8131,
      "doesn": 8132,
      "narrative": 8133,
      "antiqu": 8134,
      "housing": 8135,
      "absence": 8136,
      "caes": 8137,
      "visitors": 8138,
      "moments": 8139,
      "aerith": 8140,
      "saved": 8141,
      "<ss>rupted": 8142,
      "sharp": 8143,
      "laboratory": 8144,
      "apparently": 8145,
      "spiritual": 8146,
      "overseas": 8147,
      "proposal": 8148,
      "deployed": 8149,
      "palestine": 8150,
      "democratic": 8151,
      "biographer": 8152,
      "dialogue": 8153,
      "phillies": 8154,
      "canterbury": 8155,
      "catechism": 8156,
      "mediterranean": 8157,
      "subspecies": 8158,
      "09": 8159,
      "dele": 8160,
      "hok": 8161,
      "hull": 8162,
      "kann": 8163,
      "sale": 8164,
      "saves": 8165,
      "<ss>graf": 8166,
      "<ss>dy": 8167,
      "<ss>vn": 8168,
      "<ss>vada": 8169,
      "<ss>vements": 8170,
      "<ss>math": 8171,
      "<ss>rabb": 8172,
      "<ss>boy": 8173,
      "<ss>coming": 8174,
      "<ss>inje": 8175,
      "toll": 8176,
      "<ss>illy": 8177,
      "<ss>lete": 8178,
      "forb": 8179,
      "<ss>igation": 8180,
      "ready": 8181,
      "shipping": 8182,
      "deem": 8183,
      "degr": 8184,
      "<ss>apers": 8185,
      "<ss>illed": 8186,
      "<ss>ocy": 8187,
      "trick": 8188,
      "recon": 8189,
      "manga": 8190,
      "intense": 8191,
      "usd": 8192,
      "canyon": 8193,
      "formally": 8194,
      "warning": 8195,
      "followers": 8196,
      "musician": 8197,
      "loan": 8198,
      "expand": 8199,
      "modified": 8200,
      "considers": 8201,
      "extension": 8202,
      "restrict": 8203,
      "skull": 8204,
      "refers": 8205,
      "markgraf": 8206,
      "posted": 8207,
      "suggesting": 8208,
      "represents": 8209,
      "jackrabb": 8210,
      "representative": 8211,
      "stationed": 8212,
      "inher": 8213,
      "republican": 8214,
      "platoon": 8215,
      "corner": 8216,
      "productions": 8217,
      "krak": 8218,
      "colorado": 8219,
      "journalist": 8220,
      "imagine": 8221,
      "drums": 8222,
      "dawn": 8223,
      "nickn": 8224,
      "trouble": 8225,
      "grammy": 8226,
      "<ss>otype": 8227,
      "<ss>onomy": 8228,
      "submarine": 8229,
      "exposure": 8230,
      "mamm": 8231,
      "bureau": 8232,
      "anekant": 8233,
      "raffles": 8234,
      "helicop": 8235,
      "furtado": 8236,
      "bou": 8237,
      "baker": 8238,
      "cec": 8239,
      "lose": 8240,
      "mud": 8241,
      "nic": 8242,
      "nhl": 8243,
      "tam": 8244,
      "yo": 8245,
      "<ss>lec": 8246,
      "<ss>vati": 8247,
      "<ss>cements": 8248,
      "<ss>esco": 8249,
      "andre": 8250,
      "<ss>ili": 8251,
      "<ss>lets": 8252,
      "<ss>etts": 8253,
      "forg": 8254,
      "<ss>chang": 8255,
      "sholay": 8256,
      "<ss>agas": 8257,
      "seas": 8258,
      "<ss>abled": 8259,
      "<ss>udes": 8260,
      "<ss>iped": 8261,
      "aftermath": 8262,
      "resign": 8263,
      "actual": 8264,
      "remember": 8265,
      "thereaf": 8266,
      "engines": 8267,
      "cape": 8268,
      "166": 8269,
      "obst": 8270,
      "disturb": 8271,
      "depending": 8272,
      "barker": 8273,
      "annually": 8274,
      "persu": 8275,
      "reprodu": 8276,
      "extent": 8277,
      "140": 8278,
      "valky": 8279,
      "communications": 8280,
      "sugar": 8281,
      "ordin": 8282,
      "grounds": 8283,
      "networks": 8284,
      "predators": 8285,
      "innov": 8286,
      "informed": 8287,
      "dominican": 8288,
      "materials": 8289,
      "poorly": 8290,
      "happened": 8291,
      "ranges": 8292,
      "displays": 8293,
      "aware": 8294,
      "ensure": 8295,
      "recovery": 8296,
      "sacred": 8297,
      "purposes": 8298,
      "muscaria": 8299,
      "vehicle": 8300,
      "orbit": 8301,
      "reservoir": 8302,
      "ille": 8303,
      "cotton": 8304,
      "saturday": 8305,
      "deleg": 8306,
      "thereafter": 8307,
      "jenn": 8308,
      "kim": 8309,
      "liv": 8310,
      "lists": 8311,
      "mail": 8312,
      "pull": 8313,
      "rates": 8314,
      "vel": 8315,
      "<ss>life": 8316,
      "<ss>gam": 8317,
      "<ss>oes": 8318,
      "<ss>hang": 8319,
      "<ss>oma": 8320,
      "<ss>owiec": 8321,
      "<ss>osl": 8322,
      "shear": 8323,
      "<ss>ager": 8324,
      "<ss>apy": 8325,
      "<ss>una": 8326,
      "plane": 8327,
      "<ss>ishn": 8328,
      "<ss>acked": 8329,
      "<ss>iang": 8330,
      "boom": 8331,
      "scar": 8332,
      "ago": 8333,
      "coins": 8334,
      "<ss>ricted": 8335,
      "blow": 8336,
      "teen": 8337,
      "consult": 8338,
      "throne": 8339,
      "writings": 8340,
      "driven": 8341,
      "starlings": 8342,
      "obl": 8343,
      "15th": 8344,
      "1940s": 8345,
      "models": 8346,
      "useful": 8347,
      "maggie": 8348,
      "blacks": 8349,
      "childhood": 8350,
      "entitled": 8351,
      "easy": 8352,
      "supern": 8353,
      "radiation": 8354,
      "richmond": 8355,
      "situated": 8356,
      "representatives": 8357,
      "influential": 8358,
      "factors": 8359,
      "fifa": 8360,
      "readers": 8361,
      "salv": 8362,
      "strip": 8363,
      "honour": 8364,
      "talking": 8365,
      "mexican": 8366,
      "camer": 8367,
      "watching": 8368,
      "injuries": 8369,
      "layer": 8370,
      "withdrew": 8371,
      "israeli": 8372,
      "publisher": 8373,
      "opportunities": 8374,
      "excavation": 8375,
      "advertising": 8376,
      "wisni": 8377,
      "nichol": 8378,
      "simultaneously": 8379,
      "infrastructure": 8380,
      "wisniowiec": 8381,
      "02": 8382,
      "78": 8383,
      "900": 8384,
      "benn": 8385,
      "bald": 8386,
      "cass": 8387,
      "jar": 8388,
      "pagan": 8389,
      "ri": 8390,
      "tag": 8391,
      "wel": 8392,
      "<ss>eit": 8393,
      "<ss>va": 8394,
      "<ss>hol": 8395,
      "<ss>aver": 8396,
      "<ss>mat": 8397,
      "<ss>mont": 8398,
      "<ss>tav": 8399,
      "<ss>inian": 8400,
      "<ss>ilst": 8401,
      "<ss>emat": 8402,
      "anime": 8403,
      "analy": 8404,
      "shark": 8405,
      "ark": 8406,
      "spoke": 8407,
      "enfor": 8408,
      "<ss>ogy": 8409,
      "<ss>teenth": 8410,
      "ammun": 8411,
      "roth": 8412,
      "commem": 8413,
      "partially": 8414,
      "brick": 8415,
      "pret": 8416,
      "interests": 8417,
      "norway": 8418,
      "deck": 8419,
      "parvati": 8420,
      "<ss>ugosl": 8421,
      "movements": 8422,
      "driver": 8423,
      "severely": 8424,
      "generated": 8425,
      "101": 8426,
      "123": 8427,
      "originated": 8428,
      "installed": 8429,
      "operate": 8430,
      "155": 8431,
      "113": 8432,
      "passion": 8433,
      "harm": 8434,
      "deliver": 8435,
      "personality": 8436,
      "victories": 8437,
      "moore": 8438,
      "1928": 8439,
      "historically": 8440,
      "funer": 8441,
      "massachus": 8442,
      "burned": 8443,
      "excess": 8444,
      "turb": 8445,
      "fundament": 8446,
      "sequences": 8447,
      "<ss>itzer": 8448,
      "properties": 8449,
      "athletics": 8450,
      "robin": 8451,
      "portugal": 8452,
      "adventures": 8453,
      "instruments": 8454,
      "struggle": 8455,
      "bulls": 8456,
      "wrestling": 8457,
      "jacob": 8458,
      "plateau": 8459,
      "substantial": 8460,
      "circumstances": 8461,
      "anekantavada": 8462,
      "ammunition": 8463,
      "massachusetts": 8464,
      "84": 8465,
      "92": 8466,
      "cov": 8467,
      "esh": 8468,
      "fert": 8469,
      "gary": 8470,
      "gwen": 8471,
      "hamp": 8472,
      "lud": 8473,
      "osc": 8474,
      "rav": 8475,
      "rising": 8476,
      "sans": 8477,
      "tast": 8478,
      "tide": 8479,
      "vast": 8480,
      "yugosl": 8481,
      "<ss>oh": 8482,
      "<ss>kes": 8483,
      "<ss>western": 8484,
      "<ss>onic": 8485,
      "<ss>aled": 8486,
      "<ss>ilation": 8487,
      "<ss>lying": 8488,
      "whilst": 8489,
      "<ss>owa": 8490,
      "fred": 8491,
      "frig": 8492,
      "frust": 8493,
      "shells": 8494,
      "<ss>aku": 8495,
      "price": 8496,
      "spores": 8497,
      "recip": 8498,
      "twins": 8499,
      "contest": 8500,
      "intr": 8501,
      "relie": 8502,
      "agents": 8503,
      "carved": 8504,
      "weigh": 8505,
      "poison": 8506,
      "remark": 8507,
      "sole": 8508,
      "surg": 8509,
      "miller": 8510,
      "metropol": 8511,
      "<ss>ucing": 8512,
      "<ss>yll": 8513,
      "anyone": 8514,
      "raaf": 8515,
      "listing": 8516,
      "1927": 8517,
      "amongst": 8518,
      "hurricanes": 8519,
      "everyone": 8520,
      "casting": 8521,
      "survive": 8522,
      "looks": 8523,
      "mixture": 8524,
      "predomin": 8525,
      "departure": 8526,
      "khand": 8527,
      "biggest": 8528,
      "wilson": 8529,
      "garrison": 8530,
      "establishing": 8531,
      "thinking": 8532,
      "loud": 8533,
      "eaton": 8534,
      "swedish": 8535,
      "affairs": 8536,
      "acknowled": 8537,
      "emergency": 8538,
      "ustase": 8539,
      "kannada": 8540,
      "celt": 8541,
      "caves": 8542,
      "gill": 8543,
      "jr": 8544,
      "kam": 8545,
      "mack": 8546,
      "mental": 8547,
      "pag": 8548,
      "tiss": 8549,
      "wives": 8550,
      "zoo": 8551,
      "<ss>greg": 8552,
      "<ss>uge": 8553,
      "<ss>piece": 8554,
      "<ss>bal": 8555,
      "<ss>inery": 8556,
      "<ss>ares": 8557,
      "<ss>oux": 8558,
      "<ss>state": 8559,
      "wasn": 8560,
      "forty": 8561,
      "bearing": 8562,
      "<ss>agement": 8563,
      "herald": 8564,
      "residence": 8565,
      "resigned": 8566,
      "marry": 8567,
      "marquez": 8568,
      "playoff": 8569,
      "cars": 8570,
      "overl": 8571,
      "<ss>kend": 8572,
      "<ss>weight": 8573,
      "blues": 8574,
      "paraly": 8575,
      "consp": 8576,
      "howe": 8577,
      "divers": 8578,
      "armored": 8579,
      "instance": 8580,
      "ports": 8581,
      "178": 8582,
      "downtown": 8583,
      "loose": 8584,
      "westward": 8585,
      "offices": 8586,
      "<ss>onto": 8587,
      "midge": 8588,
      "classification": 8589,
      "1933": 8590,
      "restored": 8591,
      "harsh": 8592,
      "trek": 8593,
      "trend": 8594,
      "formerly": 8595,
      "compete": 8596,
      "<ss>encing": 8597,
      "sung": 8598,
      "techniques": 8599,
      "fifteen": 8600,
      "burial": 8601,
      "veronica": 8602,
      "select": 8603,
      "creative": 8604,
      "documents": 8605,
      "interesting": 8606,
      "occupation": 8607,
      "boxing": 8608,
      "simpson": 8609,
      "pictures": 8610,
      "experiences": 8611,
      "neighbor": 8612,
      "reinforcements": 8613,
      "tanks": 8614,
      "premiered": 8615,
      "delayed": 8616,
      "gilbert": 8617,
      "terrorist": 8618,
      "corporation": 8619,
      "stewart": 8620,
      "phoenix": 8621,
      "<ss>friend": 8622,
      "yanke": 8623,
      "wicca": 8624,
      "khandoba": 8625,
      "cow": 8626,
      "code": 8627,
      "dak": 8628,
      "denn": 8629,
      "josh": 8630,
      "mall": 8631,
      "mood": 8632,
      "mys": 8633,
      "mcl": 8634,
      "rig": 8635,
      "ride": 8636,
      "<ss>lie": 8637,
      "<ss>gro": 8638,
      "<ss>uable": 8639,
      "<ss>mate": 8640,
      "<ss>ori": 8641,
      "<ss>isters": 8642,
      "<ss>the": 8643,
      "<ss>roit": 8644,
      "wasp": 8645,
      "forcing": 8646,
      "reh": 8647,
      "<ss>ulating": 8648,
      "prove": 8649,
      "succ": 8650,
      "<ss>apse": 8651,
      "plus": 8652,
      "trained": 8653,
      "complic": 8654,
      "resolution": 8655,
      "prep": 8656,
      "attrib": 8657,
      "format": 8658,
      "peach": 8659,
      "<ss>ologies": 8660,
      "drain": 8661,
      "surge": 8662,
      "supplement": 8663,
      "founder": 8664,
      "smooth": 8665,
      "165": 8666,
      "<ss>yline": 8667,
      "continental": 8668,
      "designs": 8669,
      "<ss>ontin": 8670,
      "weekend": 8671,
      "1957": 8672,
      "detroit": 8673,
      "harmon": 8674,
      "universe": 8675,
      "skills": 8676,
      "differences": 8677,
      "frelim": 8678,
      "federation": 8679,
      "21st": 8680,
      "sounds": 8681,
      "toronto": 8682,
      "scientists": 8683,
      "audiences": 8684,
      "wright": 8685,
      "recognised": 8686,
      "costs": 8687,
      "measured": 8688,
      "achieve": 8689,
      "inhg": 8690,
      "clearly": 8691,
      "martial": 8692,
      "preparation": 8693,
      "weapon": 8694,
      "illustrated": 8695,
      "application": 8696,
      "minimum": 8697,
      "jurchen": 8698,
      "imprison": 8699,
      "moderate": 8700,
      "mulder": 8701,
      "retirement": 8702,
      "hudson": 8703,
      "mozambique": 8704,
      "proportion": 8705,
      "wisniowiecki": 8706,
      "frelimo": 8707,
      "bones": 8708,
      "foss": 8709,
      "fasc": 8710,
      "kansas": 8711,
      "mbar": 8712,
      "ns": 8713,
      "pf": 8714,
      "pec": 8715,
      "sant": 8716,
      "tack": 8717,
      "ww": 8718,
      "wonder": 8719,
      "zomb": 8720,
      "<ss>ses": 8721,
      "<ss>vant": 8722,
      "<ss>mus": 8723,
      "<ss>rat": 8724,
      "<ss>bn": 8725,
      "<ss>tles": 8726,
      "<ss>cer": 8727,
      "thor": 8728,
      "<ss>onia": 8729,
      "<ss>rees": 8730,
      "<ss>oli": 8731,
      "<ss>olen": 8732,
      "enh": 8733,
      "clin": 8734,
      "scully": 8735,
      "commons": 8736,
      "usage": 8737,
      "coff": 8738,
      "jobs": 8739,
      "engage": 8740,
      "symp": 8741,
      "defending": 8742,
      "scheme": 8743,
      "starred": 8744,
      "crops": 8745,
      "battlec": 8746,
      "artwork": 8747,
      "163": 8748,
      "crake": 8749,
      "depicts": 8750,
      "<ss>elsen": 8751,
      "barry": 8752,
      "<ss>atherine": 8753,
      "variation": 8754,
      "magdal": 8755,
      "characterized": 8756,
      "christoph": 8757,
      "kevin": 8758,
      "temporary": 8759,
      "promised": 8760,
      "presentation": 8761,
      "cleared": 8762,
      "expert": 8763,
      "elections": 8764,
      "sufficient": 8765,
      "condem": 8766,
      "satisf": 8767,
      "archaeologist": 8768,
      "err": 8769,
      "huge": 8770,
      "objective": 8771,
      "ranging": 8772,
      "badly": 8773,
      "russia": 8774,
      "giants": 8775,
      "grown": 8776,
      "revolutionary": 8777,
      "victorian": 8778,
      "draf": 8779,
      "fatal": 8780,
      "excavations": 8781,
      "mechanical": 8782,
      "<ss>criptions": 8783,
      "ethnic": 8784,
      "cubs": 8785,
      "tactics": 8786,
      "philosophy": 8787,
      "coleman": 8788,
      "cinema": 8789,
      "voyage": 8790,
      "remarked": 8791,
      "convinced": 8792,
      "battlecru": 8793,
      "03": 8794,
      "aster": 8795,
      "bun": 8796,
      "bind": 8797,
      "cel": 8798,
      "dave": 8799,
      "gamb": 8800,
      "hub": 8801,
      "kong": 8802,
      "lia": 8803,
      "nu": 8804,
      "pc": 8805,
      "ruth": 8806,
      "vote": 8807,
      "<ss>ien": 8808,
      "<ss>night": 8809,
      "<ss>right": 8810,
      "<ss>rants": 8811,
      "<ss>yce": 8812,
      "<ss>inus": 8813,
      "<ss>edy": 8814,
      "<ss>inge": 8815,
      "<ss>asm": 8816,
      "<ss>icity": 8817,
      "<ss>icia": 8818,
      "render": 8819,
      "<ss>char": 8820,
      "isot": 8821,
      "<ss>emies": 8822,
      "chanc": 8823,
      "<ss>aints": 8824,
      "<ss>odr": 8825,
      "<ss>opp": 8826,
      "<ss>unction": 8827,
      "nebr": 8828,
      "<ss>akum": 8829,
      "<ss>ategy": 8830,
      "unre": 8831,
      "spar": 8832,
      "boot": 8833,
      "relation": 8834,
      "fee": 8835,
      "feathers": 8836,
      "partner": 8837,
      "cargo": 8838,
      "interpre": 8839,
      "decides": 8840,
      "texts": 8841,
      "warren": 8842,
      "regiments": 8843,
      "revival": 8844,
      "strategy": 8845,
      "install": 8846,
      "crab": 8847,
      "describe": 8848,
      "persian": 8849,
      "designer": 8850,
      "publications": 8851,
      "corb": 8852,
      "arriving": 8853,
      "restricted": 8854,
      "inscription": 8855,
      "eleph": 8856,
      "valuable": 8857,
      "explo": 8858,
      "communication": 8859,
      "1926": 8860,
      "opponent": 8861,
      "cyt": 8862,
      "claiming": 8863,
      "peters": 8864,
      "hamlet": 8865,
      "factory": 8866,
      "davis": 8867,
      "<ss>efa": 8868,
      "striking": 8869,
      "ranking": 8870,
      "closest": 8871,
      "diagn": 8872,
      "quarterback": 8873,
      "duty": 8874,
      "displayed": 8875,
      "mrs": 8876,
      "frequent": 8877,
      "intellect": 8878,
      "magnetic": 8879,
      "magnitude": 8880,
      "aspect": 8881,
      "graphics": 8882,
      "boundary": 8883,
      "determine": 8884,
      "schedule": 8885,
      "protestant": 8886,
      "alleged": 8887,
      "neutral": 8888,
      "feeding": 8889,
      "dwarf": 8890,
      "impressed": 8891,
      "false": 8892,
      "drug": 8893,
      "benefit": 8894,
      "residential": 8895,
      "predecessor": 8896,
      "styles": 8897,
      "inhabitants": 8898,
      "cavalry": 8899,
      "ambassador": 8900,
      "hokies": 8901,
      "oscar": 8902,
      "01": 8903,
      "dies": 8904,
      "dual": 8905,
      "erected": 8906,
      "hans": 8907,
      "jet": 8908,
      "mes": 8909,
      "mitch": 8910,
      "pic": 8911,
      "sas": 8912,
      "tut": 8913,
      "tenth": 8914,
      "<ss>gov": 8915,
      "<ss>ao": 8916,
      "<ss>bing": 8917,
      "<ss>icit": 8918,
      "<ss>eled": 8919,
      "<ss>ecraft": 8920,
      "<ss>acles": 8921,
      "aside": 8922,
      "<ss>iders": 8923,
      "isbn": 8924,
      "chan": 8925,
      "chagas": 8926,
      "uniform": 8927,
      "<ss>ellar": 8928,
      "clust": 8929,
      "abby": 8930,
      "allen": 8931,
      "amph": 8932,
      "<ss>oko": 8933,
      "roots": 8934,
      "<ss>ignment": 8935,
      "brill": 8936,
      "offs": 8937,
      "coin": 8938,
      "outbreak": 8939,
      "centers": 8940,
      "decay": 8941,
      "attained": 8942,
      "charged": 8943,
      "<ss>graph": 8944,
      "revol": 8945,
      "releases": 8946,
      "belg": 8947,
      "armament": 8948,
      "millenn": 8949,
      "<ss>ertain": 8950,
      "deput": 8951,
      "<ss>aham": 8952,
      "commandment": 8953,
      "considering": 8954,
      "arrive": 8955,
      "refuge": 8956,
      "difference": 8957,
      "possess": 8958,
      "explains": 8959,
      "bands": 8960,
      "highways": 8961,
      "argues": 8962,
      "1905": 8963,
      "turks": 8964,
      "machines": 8965,
      "satell": 8966,
      "ruling": 8967,
      "cruise": 8968,
      "dominant": 8969,
      "malley": 8970,
      "strengthened": 8971,
      "anthem": 8972,
      "batteries": 8973,
      "newspapers": 8974,
      "bulk": 8975,
      "degrees": 8976,
      "waiting": 8977,
      "liberal": 8978,
      "leslie": 8979,
      "mathews": 8980,
      "definition": 8981,
      "jonathan": 8982,
      "premiere": 8983,
      "adaptation": 8984,
      "prompted": 8985,
      "exclusively": 8986,
      "updated": 8987,
      "kelly": 8988,
      "settlements": 8989,
      "pioneer": 8990,
      "perspective": 8991,
      "wagner": 8992,
      "deemed": 8993,
      "valkyria": 8994,
      "paralymp": 8995,
      "bom": 8996,
      "banned": 8997,
      "fib": 8998,
      "nut": 8999,
      "nash": 9000,
      "uefa": 9001,
      "<ss>iac": 9002,
      "<ss>hem": 9003,
      "<ss>ko": 9004,
      "<ss>wer": 9005,
      "<ss>jan": 9006,
      "infer": 9007,
      "<ss>anth": 9008,
      "<ss>itively": 9009,
      "<ss>ilty": 9010,
      "<ss>urer": 9011,
      "<ss>roph": 9012,
      "stu": 9013,
      "<ss>olithic": 9014,
      "rend": 9015,
      "shield": 9016,
      "comics": 9017,
      "prosp": 9018,
      "suicide": 9019,
      "deity": 9020,
      "<ss>aki": 9021,
      "export": 9022,
      "exists": 9023,
      "<ss>arte": 9024,
      "herze": 9025,
      "clark": 9026,
      "scattered": 9027,
      "amid": 9028,
      "amaz": 9029,
      "resumed": 9030,
      "carn": 9031,
      "impression": 9032,
      "brain": 9033,
      "coinc": 9034,
      "upset": 9035,
      "earn": 9036,
      "charm": 9037,
      "assess": 9038,
      "assisted": 9039,
      "northward": 9040,
      "northeastern": 9041,
      "artistic": 9042,
      "obv": 9043,
      "metre": 9044,
      "<ss>ucks": 9045,
      "landings": 9046,
      "<ss>rows": 9047,
      "expect": 9048,
      "exposed": 9049,
      "magadh": 9050,
      "inscriptions": 9051,
      "deliber": 9052,
      "handled": 9053,
      "<ss>box": 9054,
      "furthermore": 9055,
      "tourist": 9056,
      "profile": 9057,
      "seek": 9058,
      "jackets": 9059,
      "heroes": 9060,
      "structural": 9061,
      "fifty": 9062,
      "talent": 9063,
      "crews": 9064,
      "testing": 9065,
      "injured": 9066,
      "amounts": 9067,
      "cheval": 9068,
      "celebrated": 9069,
      "investigation": 9070,
      "chronicles": 9071,
      "globe": 9072,
      "distinctive": 9073,
      "defenders": 9074,
      "kurt": 9075,
      "disappeared": 9076,
      "brooks": 9077,
      "<ss>borne": 9078,
      "<ss>burgh": 9079,
      "bertin": 9080,
      "iraq": 9081,
      "nurse": 9082,
      "commemor": 9083,
      "celtic": 9084,
      "nebraska": 9085,
      "<ss>govina": 9086,
      "magadheera": 9087,
      "cod": 9088,
      "cous": 9089,
      "cash": 9090,
      "dd": 9091,
      "dict": 9092,
      "eg": 9093,
      "haz": 9094,
      "lies": 9095,
      "laugh": 9096,
      "pyr": 9097,
      "soph": 9098,
      "wander": 9099,
      "zinc": 9100,
      "<ss>eb": 9101,
      "<ss>mouth": 9102,
      "<ss>rad": 9103,
      "<ss>wa": 9104,
      "<ss>atically": 9105,
      "<ss>icial": 9106,
      "<ss>reet": 9107,
      "<ss>omtav": 9108,
      "<ss>urally": 9109,
      "<ss>adier": 9110,
      "stores": 9111,
      "forth": 9112,
      "<ss>olia": 9113,
      "asomtav": 9114,
      "anch": 9115,
      "chain": 9116,
      "sure": 9117,
      "pryce": 9118,
      "spac": 9119,
      "enters": 9120,
      "abol": 9121,
      "<ss>okovic": 9122,
      "disband": 9123,
      "carre": 9124,
      "carmel": 9125,
      "sheff": 9126,
      "coordin": 9127,
      "pref": 9128,
      "prefect": 9129,
      "paran": 9130,
      "peaking": 9131,
      "emmy": 9132,
      "quant": 9133,
      "southeastern": 9134,
      "guilty": 9135,
      "<ss>endar": 9136,
      "<ss>inton": 9137,
      "117": 9138,
      "runners": 9139,
      "ideal": 9140,
      "triang": 9141,
      "demands": 9142,
      "harold": 9143,
      "swim": 9144,
      "organisation": 9145,
      "approval": 9146,
      "tempor": 9147,
      "basement": 9148,
      "1924": 9149,
      "1925": 9150,
      "referring": 9151,
      "sunk": 9152,
      "tooth": 9153,
      "trophy": 9154,
      "turrets": 9155,
      "circle": 9156,
      "circuit": 9157,
      "1890": 9158,
      "magazines": 9159,
      "madrid": 9160,
      "memor": 9161,
      "rebell": 9162,
      "keys": 9163,
      "murray": 9164,
      "violent": 9165,
      "uncertain": 9166,
      "matth": 9167,
      "prevented": 9168,
      "djokovic": 9169,
      "tournaments": 9170,
      "demonstrated": 9171,
[...]
